{
  "version": "1.0",
  "truncation": null,
  "padding": null,
  "added_tokens": [
    {
      "id": 0,
      "content": "<s>",
      "single_word": false,
      "lstrip": false,
      "rstrip": false,
      "normalized": false,
      "special": true
    },
    {
      "id": 1,
      "content": "<pad>",
      "single_word": false,
      "lstrip": false,
      "rstrip": false,
      "normalized": false,
      "special": true
    },
    {
      "id": 2,
      "content": "</s>",
      "single_word": false,
      "lstrip": false,
      "rstrip": false,
      "normalized": false,
      "special": true
    },
    {
      "id": 3,
      "content": "<unk>",
      "single_word": false,
      "lstrip": false,
      "rstrip": false,
      "normalized": false,
      "special": true
    },
    {
      "id": 4,
      "content": "<mask>",
      "single_word": false,
      "lstrip": false,
      "rstrip": false,
      "normalized": false,
      "special": true
    }
  ],
  "normalizer": {
    "type": "Sequence",
    "normalizers": [
      {
        "type": "NFD"
      },
      {
        "type": "Lowercase"
      },
      {
        "type": "StripAccents"
      }
    ]
  },
  "pre_tokenizer": {
    "type": "ByteLevel",
    "add_prefix_space": false,
    "trim_offsets": true,
    "use_regex": true
  },
  "post_processor": {
    "type": "ByteLevel",
    "add_prefix_space": true,
    "trim_offsets": false,
    "use_regex": true
  },
  "decoder": {
    "type": "ByteLevel",
    "add_prefix_space": true,
    "trim_offsets": true,
    "use_regex": true
  },
  "model": {
    "type": "BPE",
    "dropout": null,
    "unk_token": null,
    "continuing_subword_prefix": null,
    "end_of_word_suffix": null,
    "fuse_unk": false,
    "byte_fallback": false,
    "vocab": {
      "<s>": 0,
      "<pad>": 1,
      "</s>": 2,
      "<unk>": 3,
      "<mask>": 4,
      "!": 5,
      "\"": 6,
      "#": 7,
      "$": 8,
      "%": 9,
      "&": 10,
      "'": 11,
      "(": 12,
      ")": 13,
      "*": 14,
      "+": 15,
      ",": 16,
      "-": 17,
      ".": 18,
      "/": 19,
      "0": 20,
      "1": 21,
      "2": 22,
      "3": 23,
      "4": 24,
      "5": 25,
      "6": 26,
      "7": 27,
      "8": 28,
      "9": 29,
      ":": 30,
      ";": 31,
      "<": 32,
      "=": 33,
      ">": 34,
      "?": 35,
      "@": 36,
      "A": 37,
      "B": 38,
      "C": 39,
      "D": 40,
      "E": 41,
      "F": 42,
      "G": 43,
      "H": 44,
      "I": 45,
      "J": 46,
      "K": 47,
      "L": 48,
      "M": 49,
      "N": 50,
      "O": 51,
      "P": 52,
      "Q": 53,
      "R": 54,
      "S": 55,
      "T": 56,
      "U": 57,
      "V": 58,
      "W": 59,
      "X": 60,
      "Y": 61,
      "Z": 62,
      "[": 63,
      "\\": 64,
      "]": 65,
      "^": 66,
      "_": 67,
      "`": 68,
      "a": 69,
      "b": 70,
      "c": 71,
      "d": 72,
      "e": 73,
      "f": 74,
      "g": 75,
      "h": 76,
      "i": 77,
      "j": 78,
      "k": 79,
      "l": 80,
      "m": 81,
      "n": 82,
      "o": 83,
      "p": 84,
      "q": 85,
      "r": 86,
      "s": 87,
      "t": 88,
      "u": 89,
      "v": 90,
      "w": 91,
      "x": 92,
      "y": 93,
      "z": 94,
      "{": 95,
      "|": 96,
      "}": 97,
      "~": 98,
      "¡": 99,
      "¢": 100,
      "£": 101,
      "¤": 102,
      "¥": 103,
      "¦": 104,
      "§": 105,
      "¨": 106,
      "©": 107,
      "ª": 108,
      "«": 109,
      "¬": 110,
      "®": 111,
      "¯": 112,
      "°": 113,
      "±": 114,
      "²": 115,
      "³": 116,
      "´": 117,
      "µ": 118,
      "¶": 119,
      "·": 120,
      "¸": 121,
      "¹": 122,
      "º": 123,
      "»": 124,
      "¼": 125,
      "½": 126,
      "¾": 127,
      "¿": 128,
      "À": 129,
      "Á": 130,
      "Â": 131,
      "Ã": 132,
      "Ä": 133,
      "Å": 134,
      "Æ": 135,
      "Ç": 136,
      "È": 137,
      "É": 138,
      "Ê": 139,
      "Ë": 140,
      "Ì": 141,
      "Í": 142,
      "Î": 143,
      "Ï": 144,
      "Ð": 145,
      "Ñ": 146,
      "Ò": 147,
      "Ó": 148,
      "Ô": 149,
      "Õ": 150,
      "Ö": 151,
      "×": 152,
      "Ø": 153,
      "Ù": 154,
      "Ú": 155,
      "Û": 156,
      "Ü": 157,
      "Ý": 158,
      "Þ": 159,
      "ß": 160,
      "à": 161,
      "á": 162,
      "â": 163,
      "ã": 164,
      "ä": 165,
      "å": 166,
      "æ": 167,
      "ç": 168,
      "è": 169,
      "é": 170,
      "ê": 171,
      "ë": 172,
      "ì": 173,
      "í": 174,
      "î": 175,
      "ï": 176,
      "ð": 177,
      "ñ": 178,
      "ò": 179,
      "ó": 180,
      "ô": 181,
      "õ": 182,
      "ö": 183,
      "÷": 184,
      "ø": 185,
      "ù": 186,
      "ú": 187,
      "û": 188,
      "ü": 189,
      "ý": 190,
      "þ": 191,
      "ÿ": 192,
      "Ā": 193,
      "ā": 194,
      "Ă": 195,
      "ă": 196,
      "Ą": 197,
      "ą": 198,
      "Ć": 199,
      "ć": 200,
      "Ĉ": 201,
      "ĉ": 202,
      "Ċ": 203,
      "ċ": 204,
      "Č": 205,
      "č": 206,
      "Ď": 207,
      "ď": 208,
      "Đ": 209,
      "đ": 210,
      "Ē": 211,
      "ē": 212,
      "Ĕ": 213,
      "ĕ": 214,
      "Ė": 215,
      "ė": 216,
      "Ę": 217,
      "ę": 218,
      "Ě": 219,
      "ě": 220,
      "Ĝ": 221,
      "ĝ": 222,
      "Ğ": 223,
      "ğ": 224,
      "Ġ": 225,
      "ġ": 226,
      "Ģ": 227,
      "ģ": 228,
      "Ĥ": 229,
      "ĥ": 230,
      "Ħ": 231,
      "ħ": 232,
      "Ĩ": 233,
      "ĩ": 234,
      "Ī": 235,
      "ī": 236,
      "Ĭ": 237,
      "ĭ": 238,
      "Į": 239,
      "į": 240,
      "İ": 241,
      "ı": 242,
      "Ĳ": 243,
      "ĳ": 244,
      "Ĵ": 245,
      "ĵ": 246,
      "Ķ": 247,
      "ķ": 248,
      "ĸ": 249,
      "Ĺ": 250,
      "ĺ": 251,
      "Ļ": 252,
      "ļ": 253,
      "Ľ": 254,
      "ľ": 255,
      "Ŀ": 256,
      "ŀ": 257,
      "Ł": 258,
      "ł": 259,
      "Ń": 260,
      "an": 261,
      "Ġk": 262,
      "ne": 263,
      "ka": 264,
      "or": 265,
      "Ġa": 266,
      "ta": 267,
      "Ġp": 268,
      "Ġne": 269,
      "Ġh": 270,
      "wa": 271,
      "si": 272,
      "Ġwa": 273,
      "Ġan": 274,
      "us": 275,
      "un": 276,
      "Ġka": 277,
      "ke": 278,
      "Ġe": 279,
      "ki": 280,
      "no": 281,
      "ãģ": 282,
      "ya": 283,
      "ko": 284,
      "kor": 285,
      "pa": 286,
      "we": 287,
      "Ġi": 288,
      "uy": 289,
      "ra": 290,
      "ci": 291,
      "Ġs": 292,
      "Ġo": 293,
      "Ġr": 294,
      "nu": 295,
      "..": 296,
      "Ġta": 297,
      "ri": 298,
      "Ġkor": 299,
      "na": 300,
      "ma": 301,
      "to": 302,
      "Ġya": 303,
      "te": 304,
      "Ġhi": 305,
      "tu": 306,
      "usu": 307,
      "on": 308,
      "Ġpe": 309,
      "Ġor": 310,
      "Ġ_": 311,
      "re": 312,
      "âĢ": 313,
      "Ġsi": 314,
      "pe": 315,
      "kar": 316,
      "po": 317,
      "uwe": 318,
      "ane": 319,
      "muy": 320,
      "se": 321,
      "ye": 322,
      "Ġu": 323,
      "ak": 324,
      "hi": 325,
      "Ġruwe": 326,
      "mo": 327,
      "Ġha": 328,
      "sa": 329,
      "Ġkusu": 330,
      "ni": 331,
      "Ġki": 332,
      "...": 333,
      "Ġyak": 334,
      "Ġoka": 335,
      "Ġpa": 336,
      "Ġhine": 337,
      "Ġkane": 338,
      "Ġci": 339,
      "ku": 340,
      "pi": 341,
      "ãĤ": 342,
      "tar": 343,
      "tan": 344,
      "mi": 345,
      "ynu": 346,
      "Ġna": 347,
      "onno": 348,
      "Ġutar": 349,
      "Ġso": 350,
      "ram": 351,
      "ho": 352,
      "ano": 353,
      "rka": 354,
      "Ġkamuy": 355,
      "sir": 356,
      "Ġku": 357,
      "kamuy": 358,
      "tek": 359,
      "wen": 360,
      "uni": 361,
      "Ġko": 362,
      "âĢľ": 363,
      "yu": 364,
      "âĢĿ": 365,
      "ha": 366,
      "Ġno": 367,
      "Ġni": 368,
      "su": 369,
      "Ġpi": 370,
      "sam": 371,
      "Ġun": 372,
      "me": 373,
      "Ġhawe": 374,
      "yne": 375,
      "he": 376,
      "oro": 377,
      "spa": 378,
      "Ġtu": 379,
      "Ġhe": 380,
      "Ġyakka": 381,
      "Ġanak": 382,
      "oka": 383,
      "tak": 384,
      "yay": 385,
      "kusu": 386,
      "kka": 387,
      "Ġse": 388,
      "ari": 389,
      "Ġ__": 390,
      "ru": 391,
      "Ġene": 392,
      "Ġkus": 393,
      "Ġsomo": 394,
      "Ġsa": 395,
      "ray": 396,
      "so": 397,
      "ar": 398,
      "Ġho": 399,
      "Ġto": 400,
      "Ġpirka": 401,
      "hine": 402,
      "ãĢ": 403,
      "nukar": 404,
      "Ġar": 405,
      "sekor": 406,
      "noko": 407,
      "hu": 408,
      "mat": 409,
      "menoko": 410,
      "yo": 411,
      "Ġkuni": 412,
      "'=": 413,
      "pu": 414,
      "Ġanakne": 415,
      "as": 416,
      "Ġnispa": 417,
      "Ġhaw": 418,
      "Ġakusu": 419,
      "kon": 420,
      "tane": 421,
      "Ġc": 422,
      "Ġkonno": 423,
      "Ġkorka": 424,
      "kas": 425,
      "Ġayne": 426,
      "nne": 427,
      "Ġisam": 428,
      "tke": 429,
      "ramu": 430,
      "Ġsekor": 431,
      "kus": 432,
      "tari": 433,
      "Ġn": 434,
      "Ġiki": 435,
      "kun": 436,
      "tuy": 437,
      "ani": 438,
      "Ġaynu": 439,
      "ãģ¦": 440,
      "anke": 441,
      "ãģĦ": 442,
      "Ġwen": 443,
      "Ġke": 444,
      "Ġyakun": 445,
      "Ġsiri": 446,
      "Ġre": 447,
      "Ġhawean": 448,
      "Ġhu": 449,
      "Ġora": 450,
      "pun": 451,
      "ãģŁ": 452,
      "usa": 453,
      "Ġcise": 454,
      "kur": 455,
      "man": 456,
      "Ġyu": 457,
      "nep": 458,
      "Ġmenoko": 459,
      "Ġkotan": 460,
      "Ġek": 461,
      "Ġoro": 462,
      "Ġpak": 463,
      "yan": 464,
      "ãģĭ": 465,
      "Ġpon": 466,
      "ora": 467,
      "Ġmo": 468,
      "ene": 469,
      "tta": 470,
      "Ġye": 471,
      "mu": 472,
      "Ġ...": 473,
      "Ġpakno": 474,
      "usuy": 475,
      "koy": 476,
      "Ġsir": 477,
      "tap": 478,
      "Ġsu": 479,
      "Ġpaye": 480,
      "ok": 481,
      "ca": 482,
      "ona": 483,
      "Ġari": 484,
      "kan": 485,
      "ãģ®": 486,
      "nkar": 487,
      "tura": 488,
      "utari": 489,
      "Ġokka": 490,
      "ine": 491,
      "Ġhike": 492,
      "Ġpo": 493,
      "iki": 494,
      "suy": 495,
      "ãĢĤ": 496,
      "Ġnep": 497,
      "Ġporo": 498,
      "Ġyan": 499,
      "Ġw": 500,
      "Ġnan": 501,
      "pirka": 502,
      "aynu": 503,
      "kore": 504,
      "Ġitak": 505,
      "Ġyaynu": 506,
      "Ġkur": 507,
      "Ġyay": 508,
      "Ġarpa": 509,
      "ep": 510,
      "Ġnu": 511,
      "Ġrusuy": 512,
      "hun": 513,
      "Ġnankor": 514,
      "tok": 515,
      "kim": 516,
      "Ġma": 517,
      "kotan": 518,
      "Ġcis": 519,
      "Ġokay": 520,
      "Ġsuy": 521,
      "kay": 522,
      "Ġea": 523,
      "ppa": 524,
      "ãģ£": 525,
      "Ġeci": 526,
      "kari": 527,
      "kap": 528,
      "pak": 529,
      "ãĢģ": 530,
      "ãĤĭ": 531,
      "Ġokkay": 532,
      "oronno": 533,
      "Ġte": 534,
      "rayke": 535,
      "os": 536,
      "Ġra": 537,
      "Ġipe": 538,
      "Ġhawki": 539,
      "Ġen": 540,
      "Ġtura": 541,
      "up": 542,
      "Ġ(": 543,
      "ãģª": 544,
      "hike": 545,
      "sirkun": 546,
      "rke": 547,
      "kasi": 548,
      "onaha": 549,
      "Ġkar": 550,
      "ãģ¯": 551,
      "cise": 552,
      "pato": 553,
      "aci": 554,
      "ore": 555,
      "sine": 556,
      "ske": 557,
      "sirkunpato": 558,
      "Ġmi": 559,
      "sik": 560,
      "tun": 561,
      "ei": 562,
      "Ġsine": 563,
      "yayko": 564,
      "wtu": 565,
      "puni": 566,
      "pok": 567,
      "uska": 568,
      "arpa": 569,
      "ãĤĴ": 570,
      "Ġusa": 571,
      "Ġani": 572,
      "Ġhene": 573,
      "Ġarki": 574,
      "poro": 575,
      "san": 576,
      "Ġinkar": 577,
      "kimne": 578,
      "ãģĹ": 579,
      "Ġrok": 580,
      "Ġokkaypo": 581,
      "ski": 582,
      "eram": 583,
      "Ġpatek": 584,
      "Ġus": 585,
      "tkemat": 586,
      "Ġkoraci": 587,
      "tom": 588,
      "ï¼": 589,
      "oma": 590,
      "Ġyupo": 591,
      "ãģ¨": 592,
      "ipe": 593,
      "sin": 594,
      "Ġ\"": 595,
      "Ġneno": 596,
      "Ġporonno": 597,
      "itak": 598,
      "nea": 599,
      "Ġsan": 600,
      "Ġtane": 601,
      "ãģ«": 602,
      "askay": 603,
      "sipi": 604,
      "Ġsapo": 605,
      "pon": 606,
      "âĢ¦": 607,
      "ro": 608,
      "yupi": 609,
      "rano": 610,
      "Ġsin": 611,
      "toma": 612,
      "pitta": 613,
      "Ġorano": 614,
      "tara": 615,
      "Ġkun": 616,
      "pkas": 617,
      "Ġkatkemat": 618,
      "unu": 619,
      "Ġawa": 620,
      "ãģĨ": 621,
      "uko": 622,
      "asi": 623,
      "Ġpoka": 624,
      "eci": 625,
      "ruska": 626,
      "Ġciki": 627,
      "kote": 628,
      "tte": 629,
      "poho": 630,
      "tuye": 631,
      "kes": 632,
      "Ġhumi": 633,
      "kere": 634,
      "haw": 635,
      "Ġnea": 636,
      "en": 637,
      "Ġakus": 638,
      "Ġtap": 639,
      "uye": 640,
      "âĢĻ": 641,
      "kasnu": 642,
      "Ġwano": 643,
      "kami": 644,
      "Ġturano": 645,
      "koyki": 646,
      "kehe": 647,
      "puri": 648,
      "sitoma": 649,
      "Ġsik": 650,
      "Ġpu": 651,
      "Ġeaskay": 652,
      "pakasnu": 653,
      "yki": 654,
      "puntek": 655,
      "ç§": 656,
      "mak": 657,
      "mam": 658,
      "Ġmat": 659,
      "ç§ģ": 660,
      "Ġru": 661,
      "Ġkon": 662,
      "ãģ£ãģ¦": 663,
      "ea": 664,
      "Ġona": 665,
      "pas": 666,
      "ykap": 667,
      "orano": 668,
      "ãĤĵ": 669,
      "Ġ[": 670,
      "ape": 671,
      "ãģķ": 672,
      "toy": 673,
      "non": 674,
      "ãĥ": 675,
      "Ġonne": 676,
      "Ġray": 677,
      "mun": 678,
      "ante": 679,
      "toko": 680,
      "ï½": 681,
      "etok": 682,
      "cis": 683,
      "arki": 684,
      "nomi": 685,
      "ney": 686,
      "ãģı": 687,
      "ek": 688,
      "_=": 689,
      "ï½ĸ": 690,
      "Ġmosir": 691,
      "resu": 692,
      ".\"": 693,
      "Ġsap": 694,
      "Ġhapo": 695,
      "ori": 696,
      "unno": 697,
      "Ġnoyne": 698,
      "yupihi": 699,
      "sma": 700,
      "mosir": 701,
      "ãĤĤ": 702,
      "Ġhuci": 703,
      "Ġape": 704,
      "Ġsuke": 705,
      "Ġkan": 706,
      "konna": 707,
      "kano": 708,
      "Ġahun": 709,
      "Ġas": 710,
      "yaynu": 711,
      "Ġtan": 712,
      "Ġon": 713,
      "Ġpet": 714,
      "kir": 715,
      "kaci": 716,
      "Ġneya": 717,
      "ãĤī": 718,
      "rap": 719,
      "Ġnen": 720,
      "Ġekimne": 721,
      "Ġsino": 722,
      "ãģĵ": 723,
      "wtum": 724,
      "somo": 725,
      "pet": 726,
      "kik": 727,
      "Ġtek": 728,
      "Ġman": 729,
      "ãģĤ": 730,
      "wano": 731,
      "Ġcip": 732,
      "rkano": 733,
      "numa": 734,
      "onne": 735,
      "nuka": 736,
      "kup": 737,
      "peke": 738,
      "ttu": 739,
      "Ġsoy": 740,
      "Ġekasi": 741,
      "keray": 742,
      "hup": 743,
      "Ġcep": 744,
      "kure": 745,
      "ikia": 746,
      "Ġuske": 747,
      "kot": 748,
      "nekon": 749,
      "eta": 750,
      "wak": 751,
      "='": 752,
      "Ġkatu": 753,
      "naw": 754,
      "Ġram": 755,
      "Ġcup": 756,
      "Ġmanu": 757,
      "inkar": 758,
      "soy": 759,
      "maci": 760,
      "anpe": 761,
      "punki": 762,
      "Ġuko": 763,
      "yupu": 764,
      "wsi": 765,
      "hawe": 766,
      "Ġpeka": 767,
      "ey": 768,
      "tur": 769,
      "Ġeaykap": 770,
      "sar": 771,
      "eino": 772,
      "ãģĻ": 773,
      "tci": 774,
      "uk": 775,
      "rura": 776,
      "orekusu": 777,
      "nispa": 778,
      "Ġhotke": 779,
      "ãĤĮ": 780,
      "wan": 781,
      "Ġeun": 782,
      "Ġopitta": 783,
      "yaykopuntek": 784,
      "punkine": 785,
      "nen": 786,
      "nak": 787,
      "unpe": 788,
      "pare": 789,
      "Ġtono": 790,
      "sak": 791,
      "Ġkes": 792,
      "Ġhetap": 793,
      "Ġkam": 794,
      "paye": 795,
      "Ġsak": 796,
      "nepo": 797,
      "mis": 798,
      "siknu": 799,
      "mip": 800,
      "âĢĺ": 801,
      "kasuy": 802,
      "moy": 803,
      "turi": 804,
      "unuhu": 805,
      "era": 806,
      "sike": 807,
      "akusu": 808,
      "nay": 809,
      "resi": 810,
      "manta": 811,
      "Ġri": 812,
      "ãĤĪ": 813,
      "sino": 814,
      "do": 815,
      "tto": 816,
      "poki": 817,
      "taa": 818,
      "uspe": 819,
      "Ġtoy": 820,
      "da": 821,
      "ren": 822,
      "sonno": 823,
      "tay": 824,
      "mare": 825,
      "pew": 826,
      "hene": 827,
      "Ġei": 828,
      "omare": 829,
      "Ġyakne": 830,
      "suke": 831,
      "Ġyuk": 832,
      "wtumu": 833,
      "npa": 834,
      "ran": 835,
      "Ġnupuri": 836,
      "Ġranke": 837,
      "Ġokake": 838,
      "Ġsonno": 839,
      "terke": 840,
      "eramu": 841,
      "tekke": 842,
      "ç§ģãģ¯": 843,
      "okka": 844,
      "Ġapkas": 845,
      "teki": 846,
      "apkas": 847,
      "Ġeasir": 848,
      "mon": 849,
      "was": 850,
      "Ġcik": 851,
      "kosi": 852,
      "Ġruy": 853,
      "Ġpirkano": 854,
      "sippa": 855,
      "Ġhopuni": 856,
      "Ġoske": 857,
      "tca": 858,
      "yar": 859,
      "tasa": 860,
      "Ġinne": 861,
      "peker": 862,
      "ãģĬ": 863,
      "son": 864,
      "oy": 865,
      "Ġsam": 866,
      "eyay": 867,
      "tapne": 868,
      "kanak": 869,
      "Ġponno": 870,
      "Ġhosipi": 871,
      "keraypo": 872,
      "in": 873,
      "hotke": 874,
      "rit": 875,
      "Ġsoyne": 876,
      "miskari": 877,
      "mko": 878,
      "Ġwenkamuy": 879,
      "ekimne": 880,
      "neno": 881,
      "akus": 882,
      "nure": 883,
      "wenkamuy": 884,
      "Ġuwe": 885,
      ".âĢĿ": 886,
      "Ġsoye": 887,
      "ttukonna": 888,
      "Ġrapok": 889,
      "nuye": 890,
      "tanu": 891,
      "iruska": 892,
      "Ġtun": 893,
      "pis": 894,
      "ãģį": 895,
      "ãģĳ": 896,
      "Ġkotom": 897,
      "Ġturasi": 898,
      "arkinne": 899,
      "Ġsake": 900,
      "Ġtuy": 901,
      "maka": 902,
      "hosipi": 903,
      "ãĤĬ": 904,
      "skar": 905,
      "Ġrametok": 906,
      "naa": 907,
      "ãģ£ãģŁ": 908,
      "oman": 909,
      "utar": 910,
      "Ġsike": 911,
      "ä¸": 912,
      "Ġnukar": 913,
      "onkami": 914,
      "sap": 915,
      "ike": 916,
      "Ġwakka": 917,
      "Ġmici": 918,
      "Ġsiknu": 919,
      "ãģĿ": 920,
      "korsi": 921,
      "kotanu": 922,
      "Ġinaw": 923,
      "Ġkasi": 924,
      "sut": 925,
      "kiru": 926,
      "Ġrup": 927,
      "Ġney": 928,
      "poutari": 929,
      "Ġkunak": 930,
      "wki": 931,
      "koyay": 932,
      "tupa": 933,
      "orekus": 934,
      "bu": 935,
      "go": 936,
      "karkar": 937,
      "rup": 938,
      "ahun": 939,
      "epunkine": 940,
      "Ġran": 941,
      "Ġonkami": 942,
      "pewtek": 943,
      "Ġt": 944,
      "Ġoruspe": 945,
      "anoka": 946,
      "Ġiyo": 947,
      "Ġy": 948,
      "mpa": 949,
      "anu": 950,
      "kew": 951,
      "Ġkewtum": 952,
      "Ġnani": 953,
      "tki": 954,
      "ãģ¾": 955,
      "äº": 956,
      "Ġkonto": 957,
      "oya": 958,
      "pke": 959,
      "ĠâĢľ": 960,
      "Ġahup": 961,
      "Ġoraun": 962,
      "Ġponmenoko": 963,
      "Ġokkayo": 964,
      "Ġ=": 965,
      "Ġkira": 966,
      "capo": 967,
      "ruy": 968,
      "wanke": 969,
      "Ġpekor": 970,
      "sanke": 971,
      "Ġv": 972,
      "kora": 973,
      "konto": 974,
      "ana": 975,
      "kihi": 976,
      "kat": 977,
      "Ġkuskeraypo": 978,
      "Ġhum": 979,
      "eyaykopuntek": 980,
      "saha": 981,
      "Ġsiran": 982,
      "asinuma": 983,
      "rok": 984,
      "Ġsisam": 985,
      "kiki": 986,
      "macihi": 987,
      "epakasnu": 988,
      "omap": 989,
      "hon": 990,
      "repa": 991,
      "hekote": 992,
      "siw": 993,
      "Ġokere": 994,
      "inu": 995,
      "ï¼ī": 996,
      "Ġ1": 997,
      "Ġiruska": 998,
      "ï¼Ī": 999,
      "kani": 1000,
      "Ġramu": 1001,
      "okake": 1002,
      "Ġeino": 1003,
      "huy": 1004,
      "tor": 1005,
      "neun": 1006,
      "soytak": 1007,
      "nani": 1008,
      "cep": 1009,
      "Ġaan": 1010,
      "Ġhekaci": 1011,
      "Ġhawan": 1012,
      "suye": 1013,
      "Ġseta": 1014,
      "Ġikia": 1015,
      "ttukonnaan": 1016,
      "ota": 1017,
      "Ġetoko": 1018,
      "uyna": 1019,
      "osma": 1020,
      "cip": 1021,
      "okkay": 1022,
      "esi": 1023,
      "korkamuy": 1024,
      "hoppa": 1025,
      "okun": 1026,
      "Ġounno": 1027,
      "yep": 1028,
      "ãģķãģĦ": 1029,
      "poronno": 1030,
      "Ġhon": 1031,
      "Ġapa": 1032,
      "wor": 1033,
      "wsar": 1034,
      "Ġorowa": 1035,
      "koytupa": 1036,
      "Ġrupne": 1037,
      "tc": 1038,
      "Ġnekon": 1039,
      "mnu": 1040,
      "kata": 1041,
      "kunne": 1042,
      "punno": 1043,
      "Ġpuri": 1044,
      "hopuni": 1045,
      "matnepo": 1046,
      "ãģªãģĦ": 1047,
      "eramiskari": 1048,
      "Ġhoski": 1049,
      "ipere": 1050,
      "Ġnay": 1051,
      "Ġhosippa": 1052,
      "karpa": 1053,
      "Ġpis": 1054,
      "Ġasi": 1055,
      "punpa": 1056,
      "Ġkari": 1057,
      "ãģ®å": 1058,
      "hawki": 1059,
      "Ġoya": 1060,
      "Ġacapo": 1061,
      "onnu": 1062,
      "ãģ¡": 1063,
      "Ġpayeka": 1064,
      "Ġiram": 1065,
      "Ġiwak": 1066,
      "Ġoman": 1067,
      "Ġme": 1068,
      "kira": 1069,
      "ãģ¸": 1070,
      "wakka": 1071,
      "Ġson": 1072,
      "satta": 1073,
      "oyki": 1074,
      "pake": 1075,
      "sur": 1076,
      "ãģĹãģ¦": 1077,
      "itekke": 1078,
      "rusuy": 1079,
      "erampewtek": 1080,
      "carpa": 1081,
      "sampe": 1082,
      "é£": 1083,
      "raye": 1084,
      "toan": 1085,
      "Ġnoski": 1086,
      "Ġrewsi": 1087,
      "Ġterke": 1088,
      "sorekusu": 1089,
      "pase": 1090,
      "yuk": 1091,
      "rep": 1092,
      "esir": 1093,
      "Ġamip": 1094,
      "eya": 1095,
      "rko": 1096,
      "Ġsirki": 1097,
      "Ġetok": 1098,
      "Ġturesi": 1099,
      "ãģĭãĤī": 1100,
      "Ġtum": 1101,
      "Ġue": 1102,
      "oripak": 1103,
      "aca": 1104,
      "kane": 1105,
      "Ġkanna": 1106,
      "iyo": 1107,
      "kkari": 1108,
      "Ġkampi": 1109,
      "ä½": 1110,
      "Ġsorekusu": 1111,
      "matek": 1112,
      "Ġhawas": 1113,
      "hoski": 1114,
      "hokure": 1115,
      "Ġcasi": 1116,
      "car": 1117,
      "kewtum": 1118,
      "hetak": 1119,
      "koni": 1120,
      "Ġkonna": 1121,
      "Ġeram": 1122,
      "Ġmak": 1123,
      "otte": 1124,
      "ska": 1125,
      "sama": 1126,
      "tanne": 1127,
      "Ġcikuni": 1128,
      "Ġota": 1129,
      "ste": 1130,
      "Ġatuy": 1131,
      "Ġyaye": 1132,
      "Ġkina": 1133,
      "tuypa": 1134,
      "Ġemko": 1135,
      "ãģĻãĤĭ": 1136,
      "anne": 1137,
      "uymam": 1138,
      "Ġos": 1139,
      "pte": 1140,
      "tne": 1141,
      "oci": 1142,
      "Ġkurka": 1143,
      "kam": 1144,
      "turu": 1145,
      "Ġmoy": 1146,
      "peka": 1147,
      "mse": 1148,
      "Ġsinen": 1149,
      "Ġro": 1150,
      "20": 1151,
      "zi": 1152,
      "Ġaep": 1153,
      "hemanta": 1154,
      "yuputari": 1155,
      "ayne": 1156,
      "okere": 1157,
      "Ġay": 1158,
      "Ġkewtumu": 1159,
      "taan": 1160,
      "Ġey": 1161,
      "Ġusi": 1162,
      "Ġunno": 1163,
      "atuy": 1164,
      "Ġharu": 1165,
      "wre": 1166,
      "numan": 1167,
      "Ġmokor": 1168,
      "isam": 1169,
      "ji": 1170,
      "too": 1171,
      "Ġkuski": 1172,
      "easir": 1173,
      "ara": 1174,
      "mina": 1175,
      "Ġakkari": 1176,
      "Ġsini": 1177,
      "siwto": 1178,
      "unkur": 1179,
      "nin": 1180,
      "tanki": 1181,
      "Ġg": 1182,
      "rupne": 1183,
      "mano": 1184,
      "shi": 1185,
      "wkes": 1186,
      "Ġes": 1187,
      "Ġutari": 1188,
      "tsu": 1189,
      "tono": 1190,
      "tko": 1191,
      "è¨": 1192,
      "Ġat": 1193,
      "korka": 1194,
      "ãģĦãĤĭ": 1195,
      "xx": 1196,
      "para": 1197,
      "yok": 1198,
      "earkinne": 1199,
      "yanne": 1200,
      "mpak": 1201,
      "Ġneun": 1202,
      "arpe": 1203,
      "Ġsanke": 1204,
      "è¨Ģ": 1205,
      "rse": 1206,
      "cikar": 1207,
      "Ġtaa": 1208,
      "pes": 1209,
      "Ġsukup": 1210,
      "äºº": 1211,
      "uta": 1212,
      "wo": 1213,
      "Ġrerko": 1214,
      "Ġsinna": 1215,
      "Ġasinuma": 1216,
      "usi": 1217,
      "Ġror": 1218,
      "orowano": 1219,
      "tuk": 1220,
      "soyne": 1221,
      "nonno": 1222,
      "ue": 1223,
      "ken": 1224,
      "Ġsorekus": 1225,
      "ser": 1226,
      "min": 1227,
      "unihi": 1228,
      "hetap": 1229,
      "ahup": 1230,
      "wne": 1231,
      "kewtumu": 1232,
      "tomo": 1233,
      "Ġb": 1234,
      "Ġuk": 1235,
      "kanna": 1236,
      "pan": 1237,
      "rewsi": 1238,
      "Ġsinep": 1239,
      "huci": 1240,
      "Ġmaci": 1241,
      "oski": 1242,
      "pokiwen": 1243,
      "kopuntek": 1244,
      "hay": 1245,
      "âħ": 1246,
      "anak": 1247,
      "kimatek": 1248,
      "âħ´": 1249,
      "kirap": 1250,
      "kohe": 1251,
      "iteki": 1252,
      "Ġomare": 1253,
      "sanpa": 1254,
      "mke": 1255,
      "Ġinu": 1256,
      "kai": 1257,
      "per": 1258,
      "mne": 1259,
      "raan": 1260,
      "sura": 1261,
      "soye": 1262,
      "tarap": 1263,
      "at": 1264,
      "Ġ*": 1265,
      "karap": 1266,
      "waanpe": 1267,
      "yak": 1268,
      "Ġkunine": 1269,
      "eun": 1270,
      "osi": 1271,
      "Ġeramu": 1272,
      "Ġhokure": 1273,
      "okunnuka": 1274,
      "sum": 1275,
      "ekasi": 1276,
      "ror": 1277,
      "yaye": 1278,
      "koonkami": 1279,
      "hor": 1280,
      "Ġwakusu": 1281,
      "Ġnina": 1282,
      "Ġhaweoka": 1283,
      "orpok": 1284,
      "hoku": 1285,
      "yup": 1286,
      "rki": 1287,
      "Ġoma": 1288,
      "mokor": 1289,
      "Ġnaa": 1290,
      "oraun": 1291,
      "toranne": 1292,
      "ronnu": 1293,
      "kao": 1294,
      "kaspa": 1295,
      "Ġenta": 1296,
      "Ġtapne": 1297,
      "munci": 1298,
      "Ġsoyenpa": 1299,
      "inne": 1300,
      "kte": 1301,
      "ounno": 1302,
      "zo": 1303,
      "nere": 1304,
      "eraman": 1305,
      "nean": 1306,
      "konnispa": 1307,
      "Ġwenkur": 1308,
      "Ġsoyene": 1309,
      "apa": 1310,
      "rara": 1311,
      "rapok": 1312,
      "natara": 1313,
      "teke": 1314,
      "Ġkim": 1315,
      "ãģķãĤĵ": 1316,
      "è¡": 1317,
      "Ġmatkaci": 1318,
      "eywanke": 1319,
      "åħ": 1320,
      "tanto": 1321,
      "mure": 1322,
      "Ġpoho": 1323,
      "Ġsantek": 1324,
      "eramuan": 1325,
      "Ġsampe": 1326,
      "taye": 1327,
      "usko": 1328,
      "Ġoy": 1329,
      "Ġmata": 1330,
      "Ġmina": 1331,
      "Ġhemanta": 1332,
      "Ġyupi": 1333,
      "Ġkunne": 1334,
      "kattar": 1335,
      "mas": 1336,
      "neywa": 1337,
      "é£Ł": 1338,
      "ama": 1339,
      "ä»": 1340,
      "wey": 1341,
      "Ġiteki": 1342,
      "sake": 1343,
      "kuste": 1344,
      "ronno": 1345,
      "ap": 1346,
      "å¤": 1347,
      "sinen": 1348,
      "rota": 1349,
      "eani": 1350,
      "inaw": 1351,
      "Ġiwan": 1352,
      "ten": 1353,
      "aku": 1354,
      "Ġsama": 1355,
      "kesto": 1356,
      "Ġmatnepo": 1357,
      "sini": 1358,
      "koo": 1359,
      "Ġkamuynomi": 1360,
      "Ġkesto": 1361,
      "dai": 1362,
      "ãģ¤": 1363,
      "Ġore": 1364,
      "renka": 1365,
      "Ġmun": 1366,
      "sinne": 1367,
      "sen": 1368,
      "sat": 1369,
      "kuri": 1370,
      "mesu": 1371,
      "ãģĦãģŁ": 1372,
      "ãģªãģķãģĦ": 1373,
      "erampokiwen": 1374,
      "ruwe": 1375,
      "Ġkay": 1376,
      "ekarkar": 1377,
      "kke": 1378,
      "pur": 1379,
      "es": 1380,
      "ãĤı": 1381,
      "ãģĦãģ¦": 1382,
      "ga": 1383,
      "Ġ.": 1384,
      "Ġiskar": 1385,
      "Ġutur": 1386,
      "sonte": 1387,
      "okkaypo": 1388,
      "tus": 1389,
      "Ġancikar": 1390,
      "kisma": 1391,
      "Ġtakup": 1392,
      "teeta": 1393,
      "ãģ®ç": 1394,
      "æĿ": 1395,
      "Ġkoyay": 1396,
      "è¡Į": 1397,
      "ay": 1398,
      "koytak": 1399,
      "hawean": 1400,
      "Ġorowano": 1401,
      "toyko": 1402,
      "nisatta": 1403,
      "Ġcikap": 1404,
      "wennukar": 1405,
      "hanke": 1406,
      "niyo": 1407,
      "Ġreyep": 1408,
      "ãģĹãģŁ": 1409,
      "Ġonnay": 1410,
      "Ġepitta": 1411,
      "are": 1412,
      "åĪ": 1413,
      "eu": 1414,
      "par": 1415,
      "Ġunu": 1416,
      "ï¼Ł": 1417,
      "ä½ķ": 1418,
      "otu": 1419,
      "ĠãģŁ": 1420,
      "hinak": 1421,
      "Ġkosonte": 1422,
      "puyar": 1423,
      "kimun": 1424,
      "ŃĲ": 1425,
      "paro": 1426,
      "Ġitanki": 1427,
      "pirkano": 1428,
      "Ġcorpok": 1429,
      "kuran": 1430,
      "skep": 1431,
      "eyam": 1432,
      "Ġearkinne": 1433,
      "rar": 1434,
      "Ġyupke": 1435,
      "Ġori": 1436,
      "suk": 1437,
      "Ġeattukonnaan": 1438,
      "eaykap": 1439,
      "æľ": 1440,
      "Ġera": 1441,
      "petek": 1442,
      "Ġpase": 1443,
      "okay": 1444,
      "suypa": 1445,
      "kikkik": 1446,
      "sinot": 1447,
      "Ġhoskino": 1448,
      "ciw": 1449,
      "Ġkosi": 1450,
      "supa": 1451,
      "Ġren": 1452,
      "ponno": 1453,
      "ãģĪ": 1454,
      "turesi": 1455,
      "Ġyayko": 1456,
      "Ġtunas": 1457,
      "koyayrayke": 1458,
      "kaspaotte": 1459,
      "apunno": 1460,
      "Ġpas": 1461,
      "sirkur": 1462,
      "Ġpito": 1463,
      "etaye": 1464,
      "æ°": 1465,
      "kut": 1466,
      "piwki": 1467,
      "Ġunarpe": 1468,
      "rkiso": 1469,
      "hikeka": 1470,
      "epa": 1471,
      "ere": 1472,
      "sisam": 1473,
      "ãģĽ": 1474,
      "wente": 1475,
      "Ġkeraan": 1476,
      "Ġarikiki": 1477,
      "sinean": 1478,
      "toyta": 1479,
      "nukare": 1480,
      "Ġasir": 1481,
      "tata": 1482,
      "pakno": 1483,
      "ociwe": 1484,
      "keme": 1485,
      "Ġeyay": 1486,
      "Ġpokon": 1487,
      "murek": 1488,
      "atte": 1489,
      "Ġnepki": 1490,
      "ãĤĵãģŁ": 1491,
      "Ġhor": 1492,
      "riki": 1493,
      "enewsar": 1494,
      "Ġsinrit": 1495,
      "opitta": 1496,
      "æĹ": 1497,
      "Ġsun": 1498,
      "Ġhopunpa": 1499,
      "Ġmonaa": 1500,
      "onautari": 1501,
      "eran": 1502,
      "nnu": 1503,
      "sne": 1504,
      "rappa": 1505,
      "Ġriki": 1506,
      "Ġsire": 1507,
      "ãĤį": 1508,
      "sun": 1509,
      "uhuy": 1510,
      "Ġmu": 1511,
      "sire": 1512,
      "sikehe": 1513,
      "mata": 1514,
      "sukup": 1515,
      "Ġtoo": 1516,
      "aki": 1517,
      "eyayko": 1518,
      "etoko": 1519,
      "Ġitekke": 1520,
      "sere": 1521,
      "eko": 1522,
      "Ġrura": 1523,
      "pasrota": 1524,
      "moyke": 1525,
      "é£Łãģ¸": 1526,
      "iwne": 1527,
      "tai": 1528,
      "kina": 1529,
      "sari": 1530,
      "Ġhekattar": 1531,
      "yoka": 1532,
      "sina": 1533,
      "korpare": 1534,
      "eattukonnaan": 1535,
      "pekennu": 1536,
      "iskar": 1537,
      "onuman": 1538,
      "sorekus": 1539,
      "rari": 1540,
      "maw": 1541,
      "ciki": 1542,
      "nupuri": 1543,
      "moto": 1544,
      "kuskonna": 1545,
      "sinna": 1546,
      "iram": 1547,
      "koko": 1548,
      "Ġyup": 1549,
      "aynukor": 1550,
      "ido": 1551,
      "puya": 1552,
      "Ġtapan": 1553,
      "co": 1554,
      "mus": 1555,
      "rikun": 1556,
      "pir": 1557,
      "ãģĹãģĦ": 1558,
      "?âĢĿ": 1559,
      "yanke": 1560,
      "Ġtasum": 1561,
      "pokor": 1562,
      "pira": 1563,
      "Ġtokap": 1564,
      "akihi": 1565,
      "mkor": 1566,
      "pus": 1567,
      "Ġarka": 1568,
      "Ġoha": 1569,
      "eikoytupa": 1570,
      "ãĤĴæ": 1571,
      "isitoma": 1572,
      "kuy": 1573,
      "nina": 1574,
      "sos": 1575,
      "tapka": 1576,
      "esirkirap": 1577,
      "?\"": 1578,
      "cup": 1579,
      "çī": 1580,
      "kasu": 1581,
      "kitta": 1582,
      "makanak": 1583,
      "Ġupas": 1584,
      "pita": 1585,
      "tani": 1586,
      "Ġpokor": 1587,
      "Ġteeta": 1588,
      "Ġsinotca": 1589,
      "cak": 1590,
      "iko": 1591,
      "wpa": 1592,
      "Ġsinne": 1593,
      "sei": 1594,
      "kamuynomi": 1595,
      "Ġin": 1596,
      "oyra": 1597,
      "pen": 1598,
      "Ġnoka": 1599,
      "chi": 1600,
      "honno": 1601,
      "ranke": 1602,
      "tokoyki": 1603,
      "unin": 1604,
      "ew": 1605,
      "ip": 1606,
      "cir": 1607,
      "Ġkimun": 1608,
      "kuma": 1609,
      "Ġcar": 1610,
      "tterke": 1611,
      "aep": 1612,
      "ytak": 1613,
      "Ġsat": 1614,
      "Ġnusa": 1615,
      "Ġmakanak": 1616,
      "å°": 1617,
      "è¦": 1618,
      "kaun": 1619,
      "kare": 1620,
      "taskep": 1621,
      "Ġhanke": 1622,
      "Ġiku": 1623,
      "nas": 1624,
      "sinrit": 1625,
      "Ġapunno": 1626,
      "kemnu": 1627,
      "poso": 1628,
      "ramsuypa": 1629,
      "hosippa": 1630,
      "hotanu": 1631,
      "Ġsinot": 1632,
      "enon": 1633,
      "Ġ'": 1634,
      "Ġamam": 1635,
      "Ġkaspa": 1636,
      "Ġtak": 1637,
      "Ġtumi": 1638,
      "Ġsen": 1639,
      "Ġtomo": 1640,
      "uskare": 1641,
      "erampetek": 1642,
      "siko": 1643,
      "nutapka": 1644,
      "mek": 1645,
      "Ġtup": 1646,
      "turasi": 1647,
      "oha": 1648,
      "noye": 1649,
      "Ġhinak": 1650,
      "humi": 1651,
      "Ġnuye": 1652,
      "Ġmin": 1653,
      "Ġtuyma": 1654,
      "ä»Ĭ": 1655,
      "easkay": 1656,
      "Ġanu": 1657,
      "Ġeyaykopuntek": 1658,
      "Ġoper": 1659,
      "tcitara": 1660,
      "00": 1661,
      "otke": 1662,
      "Ġ-": 1663,
      "ĠâĢĿ": 1664,
      "yakanak": 1665,
      "tekehe": 1666,
      "seta": 1667,
      "Ġsirpeker": 1668,
      "mka": 1669,
      "puy": 1670,
      "Ġiwor": 1671,
      "yupo": 1672,
      "kkaido": 1673,
      "tunas": 1674,
      "Ġotasut": 1675,
      "gen": 1676,
      "osura": 1677,
      "Ġine": 1678,
      "tere": 1679,
      "mokte": 1680,
      "sapa": 1681,
      "kurka": 1682,
      "æĿ¥": 1683,
      "Ġyuptek": 1684,
      "eni": 1685,
      "mkir": 1686,
      "onon": 1687,
      "Ġiko": 1688,
      "Ġikor": 1689,
      "Ġhempak": 1690,
      "Ġhawoka": 1691,
      "ãģ¦ãĤĤ": 1692,
      "Ġrera": 1693,
      "simne": 1694,
      "yap": 1695,
      "Ġosma": 1696,
      "map": 1697,
      "Ġpuyar": 1698,
      "honi": 1699,
      "ai": 1700,
      "æĢ": 1701,
      "Ġuymam": 1702,
      "newsar": 1703,
      "rihi": 1704,
      "muye": 1705,
      "you": 1706,
      "tunna": 1707,
      "Ġputu": 1708,
      "Ġesta": 1709,
      "çī©": 1710,
      "...)": 1711,
      "Ġkuca": 1712,
      "Ġsintoko": 1713,
      "ãģĤãģ®": 1714,
      "sermak": 1715,
      "etun": 1716,
      "iwan": 1717,
      "zu": 1718,
      "katanu": 1719,
      "Ġkat": 1720,
      "ãģ²": 1721,
      "tapan": 1722,
      "sinki": 1723,
      "nonnoitak": 1724,
      "Ġpun": 1725,
      "Ġhun": 1726,
      "turano": 1727,
      "ineap": 1728,
      "otasut": 1729,
      "parak": 1730,
      "iwor": 1731,
      "çĶ": 1732,
      "oru": 1733,
      "Ġisitoma": 1734,
      "orowa": 1735,
      "arikiki": 1736,
      "payeka": 1737,
      "ãĤĪãģĨ": 1738,
      "Ġiyotta": 1739,
      "bun": 1740,
      "oar": 1741,
      "katta": 1742,
      "Ġoar": 1743,
      "kusi": 1744,
      "Ġkem": 1745,
      "ir": 1746,
      "Ġisoytak": 1747,
      "tutko": 1748,
      "hok": 1749,
      "utarihi": 1750,
      "Ġrapokke": 1751,
      "ti": 1752,
      "tumam": 1753,
      "karun": 1754,
      "niwkes": 1755,
      "Ġturep": 1756,
      "kanu": 1757,
      "hunara": 1758,
      "Ġoripak": 1759,
      "utur": 1760,
      "nurappa": 1761,
      "ãĤģ": 1762,
      "turiri": 1763,
      "uhuyka": 1764,
      "asir": 1765,
      "æĸ": 1766,
      "Ġepunkine": 1767,
      "Ġsirepa": 1768,
      "yokpe": 1769,
      "zoku": 1770,
      "katu": 1771,
      "koi": 1772,
      "reye": 1773,
      "Ġsuma": 1774,
      "Ġmoyre": 1775,
      "æ°Ĺ": 1776,
      "Ġtuye": 1777,
      "Ġkitay": 1778,
      "ãĤĦ": 1779,
      "Ġrehe": 1780,
      "Ġrepun": 1781,
      "otasam": 1782,
      "hoskino": 1783,
      "Ġasin": 1784,
      "Ġasur": 1785,
      "Ġkiyanne": 1786,
      "yaykata": 1787,
      "Ġcaca": 1788,
      "sanniyo": 1789,
      "ĠãģŁãģĭ": 1790,
      "ãģ¿": 1791,
      "kouwe": 1792,
      "yayrayke": 1793,
      "Ġhusko": 1794,
      "koho": 1795,
      "raci": 1796,
      "mos": 1797,
      "wenkur": 1798,
      "okkayo": 1799,
      "Ġrorunpe": 1800,
      "hotanukar": 1801,
      "!\"": 1802,
      "etu": 1803,
      "roski": 1804,
      "åŃĲ": 1805,
      "ĠâĢ¦": 1806,
      "tam": 1807,
      "kiyanne": 1808,
      "nospa": 1809,
      "Ġshi": 1810,
      "Ġtaan": 1811,
      "Ġutura": 1812,
      "ãģ®ãģ¦": 1813,
      "iokunnuka": 1814,
      "kuni": 1815,
      "ype": 1816,
      "Ġsikiru": 1817,
      "Ġumurek": 1818,
      "suru": 1819,
      "ruka": 1820,
      "Ġnuy": 1821,
      "Ġrep": 1822,
      "tce": 1823,
      "soro": 1824,
      "åĲ": 1825,
      "Ġrayke": 1826,
      "anpa": 1827,
      "Ġtom": 1828,
      "Ġkeme": 1829,
      "Ġmoto": 1830,
      "kotne": 1831,
      "Ġkampisos": 1832,
      "fu": 1833,
      "iku": 1834,
      "rame": 1835,
      "weysampe": 1836,
      "æĹ¥": 1837,
      "13": 1838,
      "cari": 1839,
      "mpe": 1840,
      "Ġesi": 1841,
      "raw": 1842,
      "nisuk": 1843,
      "ãģ¨ãģĵ": 1844,
      "omanan": 1845,
      "Ġwakkata": 1846,
      "nan": 1847,
      "raykotne": 1848,
      "ãģŁãģ¡": 1849,
      "Ġpone": 1850,
      "Ġrap": 1851,
      "Ġrataskep": 1852,
      "Ġpisno": 1853,
      "Ġeramiskari": 1854,
      "kasure": 1855,
      "],": 1856,
      "gi": 1857,
      "åı": 1858,
      "ãģŃ": 1859,
      "tuku": 1860,
      "poy": 1861,
      "Ġsapa": 1862,
      "Ġyayrayke": 1863,
      "hunak": 1864,
      "estan": 1865,
      "10": 1866,
      "etoranne": 1867,
      "wna": 1868,
      "zyu": 1869,
      "è©": 1870,
      "Ġm": 1871,
      "Ġpok": 1872,
      "kewe": 1873,
      "ãģµ": 1874,
      "say": 1875,
      "ãģĭæ": 1876,
      "eramusinne": 1877,
      "kohepoki": 1878,
      "Ġsiretok": 1879,
      "upas": 1880,
      "Ġ2": 1881,
      "Ġkani": 1882,
      "nepoho": 1883,
      "uskamuy": 1884,
      "tumunci": 1885,
      "orot": 1886,
      "Ġnupe": 1887,
      "Ġkanto": 1888,
      "katkemat": 1889,
      "Ġnewaanpe": 1890,
      "cihi": 1891,
      "mama": 1892,
      "respa": 1893,
      "karku": 1894,
      "pone": 1895,
      "sem": 1896,
      "sirun": 1897,
      "Ġnisatta": 1898,
      "ãģĦãģĨ": 1899,
      "ponmenoko": 1900,
      "eso": 1901,
      "ppo": 1902,
      "wse": 1903,
      "âĻ": 1904,
      "yaya": 1905,
      "haru": 1906,
      "Ġtotto": 1907,
      "Ġaynuitak": 1908,
      "ãģĵãģ¨": 1909,
      "ãĤĮãģ¦": 1910,
      "Ġeramuan": 1911,
      "eo": 1912,
      "newaanpe": 1913,
      "Ġanke": 1914,
      "Ġir": 1915,
      "Ġirenka": 1916,
      "Ġsito": 1917,
      "mosma": 1918,
      "ãĢĢ": 1919,
      "Ġca": 1920,
      "koypuni": 1921,
      "Ġiramkitta": 1922,
      "19": 1923,
      "cen": 1924,
      "Ġap": 1925,
      "Ġenon": 1926,
      "Ġotta": 1927,
      "Ġsipi": 1928,
      "sapo": 1929,
      "hopunpa": 1930,
      "tuyma": 1931,
      "Ġwentarap": 1932,
      "Ġhumas": 1933,
      "sinewe": 1934,
      "Ġhonkor": 1935,
      "caranke": 1936,
      "rapokke": 1937,
      "kire": 1938,
      "yukar": 1939,
      "Ġsirkunne": 1940,
      "Ġnupur": 1941,
      "_,": 1942,
      "æī": 1943,
      "kopasrota": 1944,
      "taru": 1945,
      "Ġaynumosir": 1946,
      "oskur": 1947,
      "Ġsinean": 1948,
      "rittunna": 1949,
      "oyamokte": 1950,
      "huciape": 1951,
      "è©±": 1952,
      "ekari": 1953,
      "Ġ3": 1954,
      "siri": 1955,
      "masu": 1956,
      "Ġhayokpe": 1957,
      "taro": 1958,
      "siknuka": 1959,
      "Ġmoymoyke": 1960,
      "200": 1961,
      "por": 1962,
      "ure": 1963,
      "kok": 1964,
      "Ġiwa": 1965,
      "hempak": 1966,
      "ruke": 1967,
      "asnuka": 1968,
      "Ġkotankonnispa": 1969,
      "kotankonnispa": 1970,
      "paste": 1971,
      "ãĤĤãģ®": 1972,
      "turse": 1973,
      "ãģĿãģ®": 1974,
      "ãģĿãģĨ": 1975,
      "korkur": 1976,
      "poka": 1977,
      "tanepo": 1978,
      "eciw": 1979,
      "Ġpaskur": 1980,
      "18": 1981,
      "msu": 1982,
      "siante": 1983,
      "Ġanoka": 1984,
      "patek": 1985,
      "Ġorke": 1986,
      "Ġup": 1987,
      "Ġparo": 1988,
      "Ġcape": 1989,
      "sikkote": 1990,
      "ahunke": 1991,
      "be": 1992,
      "uka": 1993,
      "åĩ": 1994,
      "kawa": 1995,
      "cikap": 1996,
      "tewano": 1997,
      "Ġpewre": 1998,
      "tekka": 1999,
      "Ġretar": 2000,
      "Ġponiwne": 2001,
      "koykip": 2002,
      "Ġteksam": 2003,
      "Ġuwekarpa": 2004,
      "wante": 2005,
      "éģ": 2006,
      "Ġd": 2007,
      "kopi": 2008,
      "Ġosi": 2009,
      "Ġotu": 2010,
      "akka": 2011,
      "Ġokari": 2012,
      "tcike": 2013,
      "pasekamuy": 2014,
      "Ġsunku": 2015,
      "å¯": 2016,
      "Ġyap": 2017,
      "pohene": 2018,
      "akkari": 2019,
      "ãĤĩ": 2020,
      "Ġhetak": 2021,
      "Ġhoku": 2022,
      "pokna": 2023,
      "unuke": 2024,
      "easirana": 2025,
      "eraykotne": 2026,
      "siramsuypa": 2027,
      "Ġepis": 2028,
      "hayta": 2029,
      "è¦ĭ": 2030,
      "12": 2031,
      "gu": 2032,
      "Ġnean": 2033,
      "situri": 2034,
      "nup": 2035,
      "tumi": 2036,
      "yeye": 2037,
      "Ġnis": 2038,
      "hen": 2039,
      "kasma": 2040,
      "ãģŁãģĦ": 2041,
      "aynumosir": 2042,
      "hawan": 2043,
      "åħ¥": 2044,
      "amip": 2045,
      "bi": 2046,
      "eoripak": 2047,
      "nta": 2048,
      "pep": 2049,
      "Ġuhuy": 2050,
      "kuta": 2051,
      "ãĤ·": 2052,
      "rampe": 2053,
      "Ġnomi": 2054,
      "Ġhemesu": 2055,
      "Ġsar": 2056,
      "Ġhoyupu": 2057,
      "Ġmos": 2058,
      "Ġonnekur": 2059,
      "makake": 2060,
      "ä¸Ń": 2061,
      "Ġmataki": 2062,
      "cotca": 2063,
      "asur": 2064,
      "ba": 2065,
      "æ¯": 2066,
      "Ġuy": 2067,
      "wap": 2068,
      "use": 2069,
      "kosanpa": 2070,
      "Ġniwkes": 2071,
      "Ġtuk": 2072,
      "Ġtuki": 2073,
      "ot": 2074,
      "utek": 2075,
      "ykar": 2076,
      "tuya": 2077,
      "monaa": 2078,
      "Ġnipes": 2079,
      "Ġtopa": 2080,
      "tomte": 2081,
      "Ġiramante": 2082,
      "kewtumkor": 2083,
      "rpa": 2084,
      "kaye": 2085,
      "kayo": 2086,
      "yaunpe": 2087,
      "sek": 2088,
      "yanto": 2089,
      "Ġsupuya": 2090,
      "Ġsinki": 2091,
      "Ġsikno": 2092,
      "Ġruyno": 2093,
      "åĩº": 2094,
      "amam": 2095,
      "etoyta": 2096,
      "irayke": 2097,
      "Ġatte": 2098,
      "yakun": 2099,
      "Ġita": 2100,
      "naunpe": 2101,
      "Ġpeni": 2102,
      "Ġsone": 2103,
      "sone": 2104,
      "Ġtok": 2105,
      "pap": 2106,
      "tum": 2107,
      "Ġkuma": 2108,
      "Ġkoy": 2109,
      "Ġaynukor": 2110,
      "Ġhure": 2111,
      "ãģĨãĤĵ": 2112,
      "Ġapekor": 2113,
      "kosimaci": 2114,
      "Ġuekarpa": 2115,
      "hokuhu": 2116,
      "ramekote": 2117,
      "amkir": 2118,
      "èģ": 2119,
      "sikka": 2120,
      "uske": 2121,
      "Ġeu": 2122,
      "Ġirara": 2123,
      "raha": 2124,
      "numke": 2125,
      "Ġtam": 2126,
      "sutu": 2127,
      "Ġturse": 2128,
      "Ġteke": 2129,
      "ãģªãģŁ": 2130,
      "iperusuy": 2131,
      "wakkata": 2132,
      "soyenpa": 2133,
      "åĪĨ": 2134,
      "kusis": 2135,
      "Ġkemeyki": 2136,
      "èģŀ": 2137,
      "çĹ": 2138,
      "èĢ": 2139,
      "yam": 2140,
      "Ġiy": 2141,
      "Ġoasi": 2142,
      "Ġohonno": 2143,
      "Ġnitay": 2144,
      "Ġkeray": 2145,
      "Ġhikeka": 2146,
      "Ġyaykata": 2147,
      "oske": 2148,
      "ipet": 2149,
      "ãĤĵãģ¦": 2150,
      "tasare": 2151,
      "Ġsorekuska": 2152,
      "Ġkoyaykus": 2153,
      "Ġkatkor": 2154,
      "wnarura": 2155,
      "Ġmon": 2156,
      "Ġkas": 2157,
      "kowen": 2158,
      "papa": 2159,
      "Ġuturu": 2160,
      "kuru": 2161,
      "mimse": 2162,
      "tomka": 2163,
      "koterke": 2164,
      "Ġhuciape": 2165,
      "Ġsonko": 2166,
      "minzoku": 2167,
      "kaopiwki": 2168,
      "Ġrenka": 2169,
      "gaku": 2170,
      "tori": 2171,
      "wtari": 2172,
      "çģ": 2173,
      "Ġ.âĢĿ": 2174,
      "Ġekuskonna": 2175,
      "koruy": 2176,
      "ãĤĢ": 2177,
      "siro": 2178,
      "soun": 2179,
      "ãģĤãĤĭ": 2180,
      "sonko": 2181,
      "ä¸Ĭ": 2182,
      "Ġomanan": 2183,
      "è¨ĢãģĨ": 2184,
      "ahupte": 2185,
      "ronnup": 2186,
      "14": 2187,
      "=âĢĻ": 2188,
      "emko": 2189,
      "iwak": 2190,
      "æ³": 2191,
      "turep": 2192,
      "uwepeker": 2193,
      "Ġkuwa": 2194,
      "Ġtoma": 2195,
      "Ġkarkar": 2196,
      "eramuskare": 2197,
      "ãģ«ãģª": 2198,
      "hosipire": 2199,
      "Ġmacihi": 2200,
      "kouwepekennu": 2201,
      "is": 2202,
      "uturu": 2203,
      "æŃ": 2204,
      "Ġison": 2205,
      "ton": 2206,
      "tarpe": 2207,
      "hoyupu": 2208,
      "Ġnuwe": 2209,
      "mintar": 2210,
      "Ġmaciya": 2211,
      "),": 2212,
      "kin": 2213,
      "tetterke": 2214,
      "Ġsiw": 2215,
      "moye": 2216,
      "Ġpara": 2217,
      "tuymano": 2218,
      "Ġmenokopo": 2219,
      "Ġsirkorkamuy": 2220,
      "Ġpoy": 2221,
      "santek": 2222,
      "Ġkunneywa": 2223,
      "ãģĤãģªãģŁ": 2224,
      "Ġsoyke": 2225,
      "kirare": 2226,
      "Ġmintar": 2227,
      "Ġasinno": 2228,
      "taku": 2229,
      "Ġpana": 2230,
      "Ġnewa": 2231,
      "turen": 2232,
      "Ġpen": 2233,
      "Ġsituri": 2234,
      "seske": 2235,
      "suma": 2236,
      "kusa": 2237,
      "turaynu": 2238,
      "nonnoytak": 2239,
      "cu": 2240,
      "oterke": 2241,
      "utura": 2242,
      "Ġataye": 2243,
      "koan": 2244,
      "koitak": 2245,
      "ratto": 2246,
      "Ġsiru": 2247,
      "kuci": 2248,
      "tanpa": 2249,
      "mire": 2250,
      "hapo": 2251,
      "Ġpira": 2252,
      "yayki": 2253,
      "Ġkenas": 2254,
      "koysoytak": 2255,
      "kanto": 2256,
      "Ġmaw": 2257,
      "kasike": 2258,
      "esikarun": 2259,
      "å°ı": 2260,
      "eki": 2261,
      "epirka": 2262,
      "ekimatek": 2263,
      "ikor": 2264,
      "nuyna": 2265,
      "å·": 2266,
      "Ġew": 2267,
      "Ġicen": 2268,
      "wensirkur": 2269,
      "Ġkoyki": 2270,
      "Ġtumunci": 2271,
      "orawki": 2272,
      "ãĤĮãģ¨": 2273,
      "siknure": 2274,
      "Ġtumpu": 2275,
      "Ġrikip": 2276,
      "Ġrenkayne": 2277,
      "awe": 2278,
      "eru": 2279,
      "Ĥª": 2280,
      "unpuyar": 2281,
      "kop": 2282,
      "nupe": 2283,
      "yehe": 2284,
      "Ġcikoykip": 2285,
      "Ġtutko": 2286,
      "Ġhem": 2287,
      "Ġhenne": 2288,
      "konno": 2289,
      "ãģ®è": 2290,
      "ttumi": 2291,
      "moysam": 2292,
      "Ġrikun": 2293,
      "can": 2294,
      "zyo": 2295,
      "tawki": 2296,
      "Ġkatak": 2297,
      "Ġeani": 2298,
      "Ġiuta": 2299,
      "maki": 2300,
      "anip": 2301,
      "ãģĭãģ£ãģŁ": 2302,
      "sikte": 2303,
      "waskarap": 2304,
      "hopunire": 2305,
      "pekare": 2306,
      "Ġrikin": 2307,
      ",)": 2308,
      "15": 2309,
      "cho": 2310,
      "å®": 2311,
      "Ġweysampe": 2312,
      "Ġpan": 2313,
      "Ġeta": 2314,
      "Ġetu": 2315,
      "Ġikopuntek": 2316,
      "Ġkorsi": 2317,
      "nitan": 2318,
      "hoki": 2319,
      "siru": 2320,
      "Ġhen": 2321,
      "ãĤĮãĤĭ": 2322,
      "ä¸Ģ": 2323,
      "ruypa": 2324,
      "Ġemkota": 2325,
      "kooterke": 2326,
      "awa": 2327,
      "hori": 2328,
      "ç¥": 2329,
      "Ġee": 2330,
      "Ġkore": 2331,
      "pici": 2332,
      "Ġtowa": 2333,
      "hum": 2334,
      "huraye": 2335,
      "Ġkese": 2336,
      "ãģ®é": 2337,
      "Ġpohene": 2338,
      "Ġkatuhu": 2339,
      "butani": 2340,
      "paraparak": 2341,
      "çģ«": 2342,
      "17": 2343,
      "bo": 2344,
      "éĽ": 2345,
      "Ġãģ£ãģ¦": 2346,
      "ĿĢ": 2347,
      "takar": 2348,
      "repun": 2349,
      "Ġcin": 2350,
      "tekna": 2351,
      "Ġhokkaido": 2352,
      "Ġhawke": 2353,
      "Ġyaykar": 2354,
      "neap": 2355,
      "ãģıãģ¦": 2356,
      "ä¸ĭ": 2357,
      "Ġhontom": 2358,
      "eutanne": 2359,
      "Ġtomotuye": 2360,
      "æīĭ": 2361,
      "rpak": 2362,
      "uhu": 2363,
      "ÃĹ": 2364,
      "åī": 2365,
      "Ġikasma": 2366,
      "Ġsani": 2367,
      "naanak": 2368,
      "uwen": 2369,
      "Ġurar": 2370,
      "Ġuenewsar": 2371,
      "Ġturi": 2372,
      "Ġresu": 2373,
      "ikirok": 2374,
      "Ġratcitara": 2375,
      "sanu": 2376,
      "erankarap": 2377,
      "Ġmotoho": 2378,
      "ainu": 2379,
      "tusa": 2380,
      "Ġ5": 2381,
      "kopa": 2382,
      "Ġtama": 2383,
      "tuwaskarap": 2384,
      "potara": 2385,
      "satke": 2386,
      "Ġkipa": 2387,
      "Ġnaanak": 2388,
      "yuu": 2389,
      "Ġnipe": 2390,
      "Ġtekehe": 2391,
      "ãģĹãģ¾": 2392,
      "moyre": 2393,
      "Ġtoyta": 2394,
      "kosirepa": 2395,
      "Ġuwenewsar": 2396,
      "Ġeytasa": 2397,
      "isoytak": 2398,
      "op": 2399,
      "åº": 2400,
      "kara": 2401,
      "kikir": 2402,
      "tem": 2403,
      "Ġpes": 2404,
      "Ġsiyeye": 2405,
      "yuppa": 2406,
      "Ġnitne": 2407,
      "armoysam": 2408,
      "Ġarke": 2409,
      "Ġkew": 2410,
      "ttasa": 2411,
      "Ġapeare": 2412,
      "horka": 2413,
      "?)": 2414,
      "ehotke": 2415,
      "ita": 2416,
      "nusa": 2417,
      "syo": 2418,
      "Ġuni": 2419,
      "Ġhori": 2420,
      "yama": 2421,
      "kosa": 2422,
      "Ġisimne": 2423,
      "hiro": 2424,
      "ãĤ«": 2425,
      "sirkirap": 2426,
      "wenpakasnu": 2427,
      "Ġnin": 2428,
      "matnepoho": 2429,
      "Ġikipa": 2430,
      "musi": 2431,
      "osmare": 2432,
      "ãĥķ": 2433,
      "ãģıãģŁ": 2434,
      "ãģĳãĤĮãģ¨": 2435,
      "Ġtuyka": 2436,
      "koramkor": 2437,
      "Ġsamake": 2438,
      "16": 2439,
      "tpa": 2440,
      "ttek": 2441,
      "¥³": 2442,
      "å¼": 2443,
      "æ±": 2444,
      "èħ": 2445,
      "èĩ": 2446,
      "Ġ20": 2447,
      "Įģ": 2448,
      "kem": 2449,
      "yaun": 2450,
      "koka": 2451,
      "koyak": 2452,
      "Ġonuman": 2453,
      "Ġukasuy": 2454,
      "Ġhay": 2455,
      "Ġhacir": 2456,
      "sirpeker": 2457,
      "sirkorkamuy": 2458,
      "nnep": 2459,
      "kusun": 2460,
      "ãĤĴãģĻãĤĭ": 2461,
      "Ġarkipa": 2462,
      "Ġeraman": 2463,
      "æĢĿ": 2464,
      "poknamosir": 2465,
      "husko": 2466,
      "Ġdai": 2467,
      "kosma": 2468,
      "Ġineap": 2469,
      "Ġotcike": 2470,
      "pokas": 2471,
      "sepo": 2472,
      "moma": 2473,
      "Ġkin": 2474,
      "ãģıãģª": 2475,
      "mismu": 2476,
      "ikemnu": 2477,
      "tcasnuka": 2478,
      "Ġoresuy": 2479,
      "æľ¨": 2480,
      "æ¯į": 2481,
      "epis": 2482,
      "keta": 2483,
      "koe": 2484,
      "papu": 2485,
      "Ġiokunnuka": 2486,
      "Ġop": 2487,
      "Ġtasi": 2488,
      "rera": 2489,
      "Ġsitari": 2490,
      "pihi": 2491,
      "ãģ£ãģ¦ãģĦãĤĭ": 2492,
      "kotpa": 2493,
      "okunnure": 2494,
      "masnu": 2495,
      "Ġpunkar": 2496,
      "Ġirwak": 2497,
      "sani": 2498,
      "æ§": 2499,
      "Ġj": 2500,
      "sinep": 2501,
      "kokiru": 2502,
      "koraci": 2503,
      "pasuy": 2504,
      "nupur": 2505,
      "Ġsikehe": 2506,
      "nis": 2507,
      "Ġkik": 2508,
      "okari": 2509,
      "aske": 2510,
      "usaraye": 2511,
      "nepki": 2512,
      "Ġonaha": 2513,
      "Ġtanto": 2514,
      "Ġotasam": 2515,
      "å·Ŀ": 2516,
      "ãģıãģŁãģķãģĦ": 2517,
      "Ġnerok": 2518,
      "siren": 2519,
      "Ġepa": 2520,
      "noski": 2521,
      "ãģ»": 2522,
      "Ġicarpa": 2523,
      "Ġonon": 2524,
      "retar": 2525,
      "momare": 2526,
      "ãĤ¤": 2527,
      "Ġkotca": 2528,
      "ãģĦãģĦ": 2529,
      "ãģŁãģı": 2530,
      "sinewpa": 2531,
      "ãĤĴç§ģãģ¯": 2532,
      "ãĥ¼": 2533,
      "Ġsapte": 2534,
      "kirpa": 2535,
      "ãĤĮãģŁ": 2536,
      "sinotca": 2537,
      "mpara": 2538,
      "Ġoyra": 2539,
      "æ§ĺ": 2540,
      "asin": 2541,
      "emina": 2542,
      "esanniyo": 2543,
      "kyo": 2544,
      "Ġasam": 2545,
      "Ġkapar": 2546,
      "kep": 2547,
      "kema": 2548,
      "kese": 2549,
      "Ġyayo": 2550,
      "Ġsirka": 2551,
      "Ġukoyki": 2552,
      "akko": 2553,
      "Ġser": 2554,
      "hure": 2555,
      "kasnukar": 2556,
      "Ġreye": 2557,
      "ãģĭãĤĬ": 2558,
      "Ġtanne": 2559,
      "pewre": 2560,
      "Ġ19": 2561,
      "Ġpiskan": 2562,
      "wakkauskamuy": 2563,
      "xxx": 2564,
      "Ġkosimat": 2565,
      ".'": 2566,
      "osikkote": 2567,
      "sor": 2568,
      "å¹": 2569,
      "Ġf": 2570,
      "Ġhoka": 2571,
      "situ": 2572,
      "unarpe": 2573,
      "kosne": 2574,
      "ratcitara": 2575,
      "Ġtakar": 2576,
      "Ġcihoki": 2577,
      "Ġhetuku": 2578,
      "Ġsironuman": 2579,
      "Ġramat": 2580,
      "tomnukar": 2581,
      "ekte": 2582,
      "äºĭ": 2583,
      "kemeyki": 2584,
      "kopisi": 2585,
      "èĢħ": 2586,
      "eha": 2587,
      "æĺ": 2588,
      "éĩ": 2589,
      "Ġainu": 2590,
      "wasi": 2591,
      "Ġetoranne": 2592,
      "Ġika": 2593,
      "Ġuta": 2594,
      "mom": 2595,
      "Ġhaa": 2596,
      "kupa": 2597,
      "mihi": 2598,
      "meru": 2599,
      "yaykoruy": 2600,
      "Ġarsuy": 2601,
      "pakke": 2602,
      "Ġtennep": 2603,
      "Ġtanpa": 2604,
      "Ġceppo": 2605,
      "eramasu": 2606,
      "Ġyanke": 2607,
      "wop": 2608,
      "å¤§": 2609,
      "acapo": 2610,
      "itanki": 2611,
      "oto": 2612,
      "rku": 2613,
      "å±": 2614,
      "å½": 2615,
      "Ġda": 2616,
      "Ġaw": 2617,
      "Ġeo": 2618,
      "Ġekari": 2619,
      "Ġemus": 2620,
      "kiri": 2621,
      "yaku": 2622,
      "Ġot": 2623,
      "Ġroski": 2624,
      "Ġpew": 2625,
      "peci": 2626,
      "Ġuneno": 2627,
      "Ġpiyep": 2628,
      "Ġhous": 2629,
      "Ġmono": 2630,
      "kotca": 2631,
      "siwtoutar": 2632,
      "Ġgen": 2633,
      "Ġeramuoka": 2634,
      "tusmak": 2635,
      "Ġtunasno": 2636,
      "sunke": 2637,
      "pirasa": 2638,
      "cakkere": 2639,
      "ãĤĪãģĨãģ«": 2640,
      "Ġturepta": 2641,
      "emkota": 2642,
      "kra": 2643,
      "ukuran": 2644,
      "éĸ": 2645,
      "éŃ": 2646,
      "Ġ4": 2647,
      "uynak": 2648,
      "topo": 2649,
      "hokkaido": 2650,
      "Ġnihon": 2651,
      "Ġhawehe": 2652,
      "Ġton": 2653,
      "turasinot": 2654,
      "ãģ¨ãģĭ": 2655,
      "Ġhoni": 2656,
      "ãģ®åŃĲ": 2657,
      "rikunmosir": 2658,
      "èĩª": 2659,
      "(?)": 2660,
      "enu": 2661,
      "Ġhora": 2662,
      "nukuri": 2663,
      "tupare": 2664,
      "peni": 2665,
      "popke": 2666,
      "anekur": 2667,
      "tanke": 2668,
      "hosi": 2669,
      "Ġsurku": 2670,
      "Ġsuye": 2671,
      "ãģ«è¡Į": 2672,
      "poniwne": 2673,
      "onnere": 2674,
      "Ġtuypa": 2675,
      "Ġerampewtek": 2676,
      "soyene": 2677,
      "å¤ĸ": 2678,
      "Ġhorkew": 2679,
      "ãĤ·ãĥ": 2680,
      "Ġkeraypo": 2681,
      "icarpa": 2682,
      "spe": 2683,
      "cipa": 2684,
      "rika": 2685,
      "rur": 2686,
      "Ġtoska": 2687,
      "yoki": 2688,
      "put": 2689,
      "konrusuy": 2690,
      "Ġcas": 2691,
      "Ġikirok": 2692,
      "kunnure": 2693,
      "Ġken": 2694,
      "Ġkema": 2695,
      "muka": 2696,
      "muzu": 2697,
      "koypak": 2698,
      "sirkunne": 2699,
      "ãģĹãĤĩ": 2700,
      "paskur": 2701,
      "kiroro": 2702,
      "Ġcepkoyki": 2703,
      "Ġuwepeker": 2704,
      "makaka": 2705,
      "koramu": 2706,
      "ä½ľ": 2707,
      "rupneutari": 2708,
      "ãģĽãĤĭ": 2709,
      "Ġsunke": 2710,
      "taimuzu": 2711,
      "\",": 2712,
      "epotara": 2713,
      "isimne": 2714,
      "è²": 2715,
      "Ġuyna": 2716,
      "Ġunihi": 2717,
      "ļ®": 2718,
      "Ġasuru": 2719,
      "ker": 2720,
      "Ġis": 2721,
      "Ġikan": 2722,
      "maketa": 2723,
      "tup": 2724,
      "Ġsinutapka": 2725,
      "popo": 2726,
      "Ġhat": 2727,
      "sara": 2728,
      "Ġpake": 2729,
      "Ġsarampe": 2730,
      "Ġkewe": 2731,
      "Ġsupa": 2732,
      "Ġipere": 2733,
      "Ġenka": 2734,
      "upsoro": 2735,
      "eytasa": 2736,
      "Ġtus": 2737,
      "Ġtusa": 2738,
      "Ġhontomo": 2739,
      "acaha": 2740,
      "kimatekka": 2741,
      "âĻª": 2742,
      "Ġsaranip": 2743,
      "emo": 2744,
      "ohonno": 2745,
      "kopan": 2746,
      "tokap": 2747,
      "Ġhikusu": 2748,
      "raypa": 2749,
      "Ġeattukonna": 2750,
      "ãĤĴç": 2751,
      "Ġsanniyo": 2752,
      "tciw": 2753,
      "Ġtonoto": 2754,
      "moymoyke": 2755,
      "ãģĳãĤĭ": 2756,
      "sapte": 2757,
      "Ġ10": 2758,
      "Ġatpake": 2759,
      "eranak": 2760,
      "eyaykouwepeker": 2761,
      "Ġhunak": 2762,
      "racitke": 2763,
      "éŃļ": 2764,
      "11": 2765,
      "iuta": 2766,
      "osuke": 2767,
      "ä¹": 2768,
      "payoka": 2769,
      "Ġipor": 2770,
      "riten": 2771,
      "topa": 2772,
      "rametok": 2773,
      "Ġco": 2774,
      "Ġwenno": 2775,
      "Ġkaranke": 2776,
      "Ġmis": 2777,
      "iyotta": 2778,
      "ä½ķãģĭ": 2779,
      "mataki": 2780,
      "kayokar": 2781,
      "Ġkarkarse": 2782,
      "aoka": 2783,
      "å¸": 2784,
      "Ġji": 2785,
      "sioka": 2786,
      "Ġane": 2787,
      "kokari": 2788,
      "koiruska": 2789,
      "kotuk": 2790,
      "kosukup": 2791,
      "kosinewe": 2792,
      "kosanu": 2793,
      "pawe": 2794,
      "Ġok": 2795,
      "tukari": 2796,
      "Ġpar": 2797,
      "pinu": 2798,
      "tanpe": 2799,
      "kamuynere": 2800,
      "Ġhosari": 2801,
      "kunneywa": 2802,
      "koykaun": 2803,
      "Ġyaywennukar": 2804,
      "yaykosiramsuypa": 2805,
      "Ġussiw": 2806,
      "ãģ¾ãģĻ": 2807,
      "Ġrupnemat": 2808,
      "soyekatta": 2809,
      "eniste": 2810,
      "æĸŃ": 2811,
      "kiroroan": 2812,
      "Ġmismu": 2813,
      "aw": 2814,
      "cas": 2815,
      "eka": 2816,
      "han": 2817,
      "ypa": 2818,
      "Ġz": 2819,
      "keske": 2820,
      "Ġetaye": 2821,
      "Ġekimun": 2822,
      "ciwe": 2823,
      "Ġyaya": 2824,
      "Ġsitoma": 2825,
      "popte": 2826,
      "Ġkir": 2827,
      "harkiso": 2828,
      "Ġnisuk": 2829,
      "Ġhetuk": 2830,
      "Ġtoan": 2831,
      "ãģ®æ": 2832,
      "koresu": 2833,
      "oskoni": 2834,
      "Ġiperusuy": 2835,
      "eiwanke": 2836,
      "tuyekar": 2837,
      "ç§ģãģĭ": 2838,
      "eawnarura": 2839,
      "apeetok": 2840,
      "Ġrayoci": 2841,
      "ikesuy": 2842,
      "rupneutar": 2843,
      "Ġomap": 2844,
      "ãģĪãĤĭ": 2845,
      "å¯Ŀ": 2846,
      "ä¸ŃæĸŃ": 2847,
      "Ġkumatay": 2848,
      "å½ĵ": 2849,
      "èĩªåĪĨ": 2850,
      "ekuskonna": 2851,
      "imek": 2852,
      "pusu": 2853,
      "pani": 2854,
      "ä¾": 2855,
      "wari": 2856,
      "Ġetokoyki": 2857,
      "Ġohaw": 2858,
      "tumama": 2859,
      "Ġuo": 2860,
      "Ġkikir": 2861,
      "Ġcitarpe": 2862,
      "mespa": 2863,
      "heru": 2864,
      "Ġyakkay": 2865,
      "aro": 2866,
      "Ġrek": 2867,
      "okane": 2868,
      "Ġkurmat": 2869,
      "cisehe": 2870,
      "ï¼½": 2871,
      "mippo": 2872,
      "hotkere": 2873,
      "Ġinawke": 2874,
      "mpay": 2875,
      "Ġeramuskare": 2876,
      "yuptek": 2877,
      "æľ¬": 2878,
      "ãģ¨ãģĵãĤį": 2879,
      "Ġpokna": 2880,
      "Ġtopattumi": 2881,
      "cupu": 2882,
      "åīį": 2883,
      "ika": 2884,
      "ou": 2885,
      "um": 2886,
      "Ġ,": 2887,
      "anun": 2888,
      "sinu": 2889,
      "sito": 2890,
      "sietok": 2891,
      "sinutapka": 2892,
      "Ġanpa": 2893,
      "Ġenu": 2894,
      "Ġukuran": 2895,
      "Ġkusuri": 2896,
      "nikor": 2897,
      "nitay": 2898,
      "Ġpaha": 2899,
      "Ġciyoki": 2900,
      "Ġsotki": 2901,
      "Ġhoppa": 2902,
      "turare": 2903,
      "pirkare": 2904,
      "ï¼»": 2905,
      "kuresuye": 2906,
      "piskani": 2907,
      "ãģįãģªãģķãģĦ": 2908,
      "ãģ¾ãģŁ": 2909,
      "koram": 2910,
      "cepkoyki": 2911,
      "Ġrokoka": 2912,
      "Ġiwatarap": 2913,
      "Ġiyorot": 2914,
      "Ġetakasure": 2915,
      "ãĤ«ãĥ": 2916,
      "ãģŁãģıãģķãĤĵ": 2917,
      "nuy": 2918,
      "pana": 2919,
      "éĢ": 2920,
      "Ġ7": 2921,
      "Ĭ¬": 2922,
      "una": 2923,
      "unki": 2924,
      "kikur": 2925,
      "Ġiruka": 2926,
      "toyne": 2927,
      "Ġyaske": 2928,
      "tempa": 2929,
      "karanke": 2930,
      "Ġutarpake": 2931,
      "sirko": 2932,
      "Ġkopan": 2933,
      "yupke": 2934,
      "supuya": 2935,
      "Ġmoyo": 2936,
      "Ġratci": 2937,
      "ãĤĴè": 2938,
      "Ġsinta": 2939,
      "Ġput": 2940,
      "Ġruoka": 2941,
      "apesam": 2942,
      "Ġapesam": 2943,
      "Ġramma": 2944,
      "terkere": 2945,
      "apkaste": 2946,
      "ãģĳãģ¦": 2947,
      "koraye": 2948,
      "Ġmean": 2949,
      "Ġcaro": 2950,
      "bunka": 2951,
      "rawke": 2952,
      "otusuy": 2953,
      "sikkama": 2954,
      "Ġparaparak": 2955,
      "ĤªãģĦ": 2956,
      "kikurmi": 2957,
      "den": 2958,
      "gyo": 2959,
      "imakake": 2960,
      "ur": 2961,
      "umurek": 2962,
      "åĽ": 2963,
      "æĮģ": 2964,
      "Ġyo": 2965,
      "Ġama": 2966,
      "tama": 2967,
      "takare": 2968,
      "Ġimi": 2969,
      "uytek": 2970,
      "cire": 2971,
      "makan": 2972,
      "karkari": 2973,
      "sesek": 2974,
      "Ġuka": 2975,
      "Ġnibutani": 2976,
      "sukere": 2977,
      "merika": 2978,
      "soke": 2979,
      "putu": 2980,
      "Ġwente": 2981,
      "Ġkespa": 2982,
      "Ġponpe": 2983,
      "Ġsut": 2984,
      "ç§ģãģ®å": 2985,
      "kattuymano": 2986,
      "rikin": 2987,
      "ä»ĬæĹ¥": 2988,
      "æĿ¥ãģŁ": 2989,
      "Ġapto": 2990,
      "å±±": 2991,
      "syu": 2992,
      "çĿĢ": 2993,
      "ustekka": 2994,
      "keraan": 2995,
      "Ġetun": 2996,
      "kipa": 2997,
      "yaunkur": 2998,
      "koku": 2999,
      "kocaranke": 3000,
      "paykar": 3001,
      "Ġpene": 3002,
      "Ġsitu": 3003,
      "penaunpe": 3004,
      "serke": 3005,
      "moso": 3006,
      "nisap": 3007,
      "piru": 3008,
      "Ġutarpa": 3009,
      "Ġnip": 3010,
      "Ġhekote": 3011,
      "yaykatanu": 3012,
      "Ġikir": 3013,
      "kunak": 3014,
      "Ġyupet": 3015,
      "Ġkotankorkur": 3016,
      "muken": 3017,
      "koycarpa": 3018,
      "Ġsuwop": 3019,
      "tokuye": 3020,
      "skin": 3021,
      "kesna": 3022,
      "ãģĵãģĨ": 3023,
      "ãĤĮãģ¯": 3024,
      "Ġrimse": 3025,
      "Ġruyka": 3026,
      "Ġrupus": 3027,
      "é£²": 3028,
      "Ġunukar": 3029,
      "sapaha": 3030,
      "esonere": 3031,
      "âĻ©": 3032,
      "æľ¬å½ĵ": 3033,
      "eposo": 3034,
      "iruka": 3035,
      "jin": 3036,
      "ura": 3037,
      "womare": 3038,
      "å£": 3039,
      "ketu": 3040,
      "koma": 3041,
      "paru": 3042,
      "cikuni": 3043,
      "nara": 3044,
      "uwenewsar": 3045,
      "Ġukor": 3046,
      "Ġkusune": 3047,
      "Ġpayoka": 3048,
      "Ġcironnup": 3049,
      "Ġkut": 3050,
      "hekaci": 3051,
      "somap": 3052,
      "Ġyayramekote": 3053,
      "Ġmaratto": 3054,
      "mamni": 3055,
      "ãĥı": 3056,
      "ãģĵãģ®": 3057,
      "nenpoka": 3058,
      "rankarap": 3059,
      "montasa": 3060,
      "ãģ£ãģŁãĤī": 3061,
      "koyaywennukar": 3062,
      "Ġiyoype": 3063,
      "ãģĹãģ¦ãģĦãĤĭ": 3064,
      "utaspa": 3065,
      "haysitoma": 3066,
      "tenke": 3067,
      "yayattasa": 3068,
      "Ġhayta": 3069,
      "atay": 3070,
      "kne": 3071,
      "munin": 3072,
      "nun": 3073,
      "èį": 3074,
      "Ġ6": 3075,
      "Ġ8": 3076,
      "ĠâĢĻ": 3077,
      "siki": 3078,
      "Ġeyam": 3079,
      "rawe": 3080,
      "ratci": 3081,
      "Ġokuy": 3082,
      "ãĤĥ": 3083,
      "ãĤŃ": 3084,
      "sirki": 3085,
      "Ġnisat": 3086,
      "hemesu": 3087,
      "Ġtumam": 3088,
      "arwenkamuy": 3089,
      "ãĢį": 3090,
      "humse": 3091,
      "Ġrew": 3092,
      "Ġhura": 3093,
      "cakoko": 3094,
      "Ġwan": 3095,
      "hunna": 3096,
      "Ġtewano": 3097,
      "tomani": 3098,
      "ukoomap": 3099,
      "Ġhumihi": 3100,
      "Ġapeetok": 3101,
      "Ġruyanpe": 3102,
      "karkarse": 3103,
      "Ġeywanke": 3104,
      "serma": 3105,
      "Ġunuhu": 3106,
      "suno": 3107,
      "Ġhankeno": 3108,
      "kohosari": 3109,
      "poyyaunpe": 3110,
      "Ġtamasay": 3111,
      "ekot": 3112,
      "suwe": 3113,
      "ä¼": 3114,
      "Ġare": 3115,
      "sitne": 3116,
      "Ġkahun": 3117,
      "Ġemo": 3118,
      "kori": 3119,
      "rak": 3120,
      "Ġsinu": 3121,
      "karpare": 3122,
      "Ġkimatek": 3123,
      "kupi": 3124,
      "mici": 3125,
      "homsu": 3126,
      "wentarap": 3127,
      "wensiante": 3128,
      "Ġkoonkami": 3129,
      "hat": 3130,
      "hawas": 3131,
      "Ġnitan": 3132,
      "mei": 3133,
      "hese": 3134,
      "henne": 3135,
      "Ġseppa": 3136,
      "kaske": 3137,
      "ramuan": 3138,
      "Ġmom": 3139,
      "cay": 3140,
      "Ġpoutari": 3141,
      "pirkakur": 3142,
      "Ġyaykosi": 3143,
      "ecioka": 3144,
      "yaynure": 3145,
      "ttukonno": 3146,
      "Ġrik": 3147,
      "eyaykamuynere": 3148,
      "tanukuran": 3149,
      "Ġkotomne": 3150,
      "ruyno": 3151,
      "Ġesoro": 3152,
      "xxxx": 3153,
      "wot": 3154,
      "turesihi": 3155,
      "Ġsinotcaki": 3156,
      "Ġsiretokkor": 3157,
      "Ġhenpak": 3158,
      "etokoyki": 3159,
      "kyu": 3160,
      "nanu": 3161,
      "ruye": 3162,
      "susu": 3163,
      "sore": 3164,
      "tyo": 3165,
      "åľ": 3166,
      "Ġï¼Ī": 3167,
      "Ī¶": 3168,
      "Ġasik": 3169,
      "Ġawan": 3170,
      "sikihi": 3171,
      "Ġkap": 3172,
      "kesuy": 3173,
      "yakka": 3174,
      "uyma": 3175,
      "Ġtas": 3176,
      "nam": 3177,
      "Ġpete": 3178,
      "Ġpeker": 3179,
      "poo": 3180,
      "kuca": 3181,
      "Ġarwenkamuy": 3182,
      "suysir": 3183,
      "Ġmame": 3184,
      "Ġraci": 3185,
      "eirpak": 3186,
      "ï¼ļ": 3187,
      "Ġsikkew": 3188,
      "ãĤĤãģĨ": 3189,
      "Ġaskay": 3190,
      "eykoytupa": 3191,
      "kotanuhu": 3192,
      "Ġkewtumupirka": 3193,
      "rorun": 3194,
      "Ġkosip": 3195,
      "sineanta": 3196,
      "ãģŁãģ¡ãģ¯": 3197,
      "èįī": 3198,
      ")\"": 3199,
      "=...": 3200,
      "ikoytupa": 3201,
      "èī": 3202,
      "Ġwe": 3203,
      "Ġdo": 3204,
      "ĠãģĹãģ¦": 3205,
      "nerok": 3206,
      "orki": 3207,
      "Ġhan": 3208,
      "sirepa": 3209,
      "Ġkak": 3210,
      "Ġkaske": 3211,
      "Ġewen": 3212,
      "kota": 3213,
      "Ġisepo": 3214,
      "uytasa": 3215,
      "Ġtaka": 3216,
      "reyep": 3217,
      "Ġsirari": 3218,
      "sekka": 3219,
      "Ġur": 3220,
      "momo": 3221,
      "ãĤ¯": 3222,
      "kamuye": 3223,
      "Ġkot": 3224,
      "Ġkohe": 3225,
      "ãĢĮ": 3226,
      "putuye": 3227,
      "ãģ£ãģ¨": 3228,
      "karire": 3229,
      "ãģ¯ãģĦ": 3230,
      "Ġtanepo": 3231,
      "Ġsikte": 3232,
      "ãĤĵãģª": 3233,
      "erayap": 3234,
      "mantaci": 3235,
      "ãģĳãģ¨": 3236,
      "Ġwakkauskamuy": 3237,
      "kewkor": 3238,
      "Ġkurkasike": 3239,
      "Ġkayano": 3240,
      "æ°´": 3241,
      "sorekuska": 3242,
      "Ġikokanu": 3243,
      "katuwen": 3244,
      "tuyasi": 3245,
      "Ġtomari": 3246,
      "Ġweysampekor": 3247,
      "èħ¹": 3248,
      "ãĤ¤ãĥ": 3249,
      "yaykoruyruypa": 3250,
      "euko": 3251,
      "geru": 3252,
      "irara": 3253,
      "sho": 3254,
      "tusu": 3255,
      "yano": 3256,
      "åĳ": 3257,
      "çµ": 3258,
      "éħ": 3259,
      "oranne": 3260,
      "Ġae": 3261,
      "Ġaru": 3262,
      "Ġanki": 3263,
      "kespa": 3264,
      "kesanpa": 3265,
      "Ġina": 3266,
      "Ġimakake": 3267,
      "ramat": 3268,
      "Ġyam": 3269,
      "oni": 3270,
      "peran": 3271,
      "muymuye": 3272,
      "Ġhako": 3273,
      "Ġharkiso": 3274,
      "ninpa": 3275,
      "kura": 3276,
      "kupeni": 3277,
      "pit": 3278,
      "Ġkotor": 3279,
      "hem": 3280,
      "Ġhese": 3281,
      "arsuy": 3282,
      "ramuosma": 3283,
      "Ġrekuci": 3284,
      "Ġyukar": 3285,
      "Ġsukus": 3286,
      "Ġpoo": 3287,
      "Ġyaykatanu": 3288,
      "Ġkonru": 3289,
      "Ġsapporo": 3290,
      "oyaciki": 3291,
      "Ġoyakoyak": 3292,
      "kewtumupirka": 3293,
      "tomoitak": 3294,
      "eunkeray": 3295,
      "Ġhorka": 3296,
      "åı£": 3297,
      "Ġupsor": 3298,
      "sonkokuste": 3299,
      "Ġpanaunpe": 3300,
      "yaykipte": 3301,
      "å®¶": 3302,
      "Ġkaparpe": 3303,
      "??": 3304,
      "shu": 3305,
      "å¥³": 3306,
      "èµ": 3307,
      "Ġehotke": 3308,
      "koso": 3309,
      "wehe": 3310,
      "Ġikasuy": 3311,
      "Ġikoytupa": 3312,
      "Ġotte": 3313,
      "num": 3314,
      "topake": 3315,
      "Ġyayan": 3316,
      "Ġsikaye": 3317,
      "momka": 3318,
      "satu": 3319,
      "ãĤ¦": 3320,
      "hotuyekar": 3321,
      "teksam": 3322,
      "Ġnoya": 3323,
      "yaymon": 3324,
      "yaywennukar": 3325,
      "huto": 3326,
      "pusi": 3327,
      "ikin": 3328,
      "Ġnanuhu": 3329,
      "pirkakar": 3330,
      "Ġipet": 3331,
      "ãģ¨ãģĨ": 3332,
      "Ġsinre": 3333,
      "Ġputa": 3334,
      "Ġahunke": 3335,
      "monkesna": 3336,
      "ãģĳãģŁ": 3337,
      "oyak": 3338,
      "ruyke": 3339,
      "Ġpiskani": 3340,
      "kewtumuwen": 3341,
      "kampi": 3342,
      "Ġutarihi": 3343,
      "tonoke": 3344,
      "yupyupu": 3345,
      "ãģ®ç¥": 3346,
      "Ġtokapci": 3347,
      "Ġtakne": 3348,
      "sirunkamuy": 3349,
      "pepka": 3350,
      "æ³¨": 3351,
      "Ġpoyyaunpe": 3352,
      "Ġkatakana": 3353,
      "kosakayokar": 3354,
      "kosmaci": 3355,
      "ãģĹãĤĩãģĨ": 3356,
      "æľ¬å½ĵãģ«": 3357,
      "orkisne": 3358,
      "peranto": 3359,
      ".âĢĻ": 3360,
      "ina": 3361,
      "imu": 3362,
      "pse": 3363,
      "za": 3364,
      "åį": 3365,
      "çŁ": 3366,
      "Ġzi": 3367,
      "Ġamerika": 3368,
      "Ġkasa": 3369,
      "Ġeto": 3370,
      "yasi": 3371,
      "koturiri": 3372,
      "uyne": 3373,
      "Ġoto": 3374,
      "Ġtakupi": 3375,
      "rispa": 3376,
      "nipe": 3377,
      "Ġpaykar": 3378,
      "mike": 3379,
      "hempara": 3380,
      "Ġhokus": 3381,
      "puhu": 3382,
      "Ġsirihi": 3383,
      "Ġsirkur": 3384,
      "kayano": 3385,
      "Ġtere": 3386,
      "rkep": 3387,
      "ãģ¯ãģĭãĤĬ": 3388,
      "eikra": 3389,
      "Ġusey": 3390,
      "kotetterke": 3391,
      "ç§ģãģ®": 3392,
      "neywano": 3393,
      "Ġkanpi": 3394,
      "rupus": 3395,
      "Ġtori": 3396,
      "penpe": 3397,
      "yayraykere": 3398,
      "Ġmunin": 3399,
      "Ġankean": 3400,
      "ÃĹÃĹ": 3401,
      "Ġokuyma": 3402,
      "Ġyaykosiramsuypa": 3403,
      "isone": 3404,
      "kkew": 3405,
      "nunuke": 3406,
      "opiwki": 3407,
      "sya": 3408,
      "æµ": 3409,
      "èª": 3410,
      "éĿ": 3411,
      "Ġ9": 3412,
      "ħ®": 3413,
      "Ġakihi": 3414,
      "Ġporu": 3415,
      "kodo": 3416,
      "Ġitura": 3417,
      "Ġotke": 3418,
      "tuki": 3419,
      "Ġpenaunpe": 3420,
      "Ġsitcasnuka": 3421,
      "posak": 3422,
      "Ġutu": 3423,
      "Ġuwo": 3424,
      "Ġukoytak": 3425,
      "Ġupopo": 3426,
      "niste": 3427,
      "oroitak": 3428,
      "kuspe": 3429,
      "Ġkemnu": 3430,
      "orap": 3431,
      "tapanpe": 3432,
      "turaste": 3433,
      "ãĤĭãģ¨": 3434,
      "tarara": 3435,
      "ykir": 3436,
      "Ġmatne": 3437,
      "apeare": 3438,
      "kikkar": 3439,
      "Ġtoyko": 3440,
      "kosina": 3441,
      "oypep": 3442,
      "ãģįãģŁ": 3443,
      "sinire": 3444,
      "kememsu": 3445,
      "eyaykosiramsuypa": 3446,
      "iramkitta": 3447,
      "tunasno": 3448,
      "Ġepisno": 3449,
      "yantone": 3450,
      "çĹĽ": 3451,
      "Ġmonrayke": 3452,
      "æŃ»": 3453,
      "rawketupa": 3454,
      "ose": 3455,
      "ryo": 3456,
      "sko": 3457,
      "umi": 3458,
      "æĪ": 3459,
      "çĪ¶": 3460,
      "éĻ": 3461,
      "Ġbu": 3462,
      "ĻĤ": 3463,
      "Ġkyo": 3464,
      "ormosir": 3465,
      "Ġak": 3466,
      "Ġaske": 3467,
      "sikiru": 3468,
      "Ġkai": 3469,
      "Ġkapa": 3470,
      "Ġear": 3471,
      "koonne": 3472,
      "kohosipi": 3473,
      "Ġosura": 3474,
      "rici": 3475,
      "tusi": 3476,
      "tukka": 3477,
      "res": 3478,
      "Ġham": 3479,
      "Ġkisma": 3480,
      "sirmuka": 3481,
      "kamuykohepoki": 3482,
      "wentara": 3483,
      "Ġkokusis": 3484,
      "yupet": 3485,
      "Ġtukari": 3486,
      "takne": 3487,
      "Ġsem": 3488,
      "Ġseske": 3489,
      "ruma": 3490,
      "Ġkusun": 3491,
      "sotki": 3492,
      "kuspare": 3493,
      "ãģ¦ãģĦãĤĭ": 3494,
      "Ġhuraye": 3495,
      "Ġyaykopuntek": 3496,
      "yaykotomka": 3497,
      "unuka": 3498,
      "Ġukoitak": 3499,
      "ãģĬåīį": 3500,
      "honkor": 3501,
      "osikoni": 3502,
      "horak": 3503,
      "kemekar": 3504,
      "çĹħ": 3505,
      "turepta": 3506,
      "musiska": 3507,
      "ãģ®ç¥ŀ": 3508,
      "?]": 3509,
      "er": 3510,
      "gun": 3511,
      "iarmoysam": 3512,
      "ope": 3513,
      "uo": 3514,
      "utu": 3515,
      "umu": 3516,
      "wka": 3517,
      "©ãģı": 3518,
      "å¿": 3519,
      "ç«": 3520,
      "ĠâĢĺ": 3521,
      "Ġaunki": 3522,
      "Ġere": 3523,
      "Ġesoyne": 3524,
      "kita": 3525,
      "kosin": 3526,
      "kohoppa": 3527,
      "Ġoyki": 3528,
      "rikasi": 3529,
      "Ġsiporo": 3530,
      "poye": 3531,
      "Ġpatci": 3532,
      "Ġsoyo": 3533,
      "hoyuppa": 3534,
      "wenno": 3535,
      "Ġnima": 3536,
      "yayka": 3537,
      "Ġsep": 3538,
      "arustekka": 3539,
      "Ġchi": 3540,
      "Ġratki": 3541,
      "makmaki": 3542,
      "Ġmatnepoho": 3543,
      "Ġontaro": 3544,
      "petturasi": 3545,
      "date": 3546,
      "Ġetokoho": 3547,
      "tcari": 3548,
      "inawke": 3549,
      "Ġcaranke": 3550,
      "Ġden": 3551,
      "Ġsiwto": 3552,
      "Ġnipek": 3553,
      "Ġsermak": 3554,
      "Ġpewtanke": 3555,
      "Ġgengo": 3556,
      "eho": 3557,
      "hani": 3558,
      "iri": 3559,
      "ju": 3560,
      "otetterke": 3561,
      "pki": 3562,
      "tas": 3563,
      "sipasekamuy": 3564,
      "Ġkami": 3565,
      "koasur": 3566,
      "Ġopiwki": 3567,
      "nuwe": 3568,
      "nuwap": 3569,
      "naani": 3570,
      "Ġcipakasnu": 3571,
      "kuneywa": 3572,
      "ãĤĨ": 3573,
      "Ġsompay": 3574,
      "Ġpiye": 3575,
      "hekattar": 3576,
      "spare": 3577,
      "Ġhepuni": 3578,
      "Ġsei": 3579,
      "Ġaynupuri": 3580,
      "mura": 3581,
      "pirkakor": 3582,
      "korewsi": 3583,
      "Ġraw": 3584,
      "Ġmippo": 3585,
      "Ġuse": 3586,
      "Ġsinnay": 3587,
      "Ġtapka": 3588,
      "puriwen": 3589,
      "Ġneyakka": 3590,
      "kotor": 3591,
      "turimimse": 3592,
      "eyayram": 3593,
      "Ġiyos": 3594,
      "Ġhumne": 3595,
      "esikari": 3596,
      "è¨Ģãģ£ãģŁ": 3597,
      "kannakamuy": 3598,
      "gawa": 3599,
      "toykokikkik": 3600,
      "pirpa": 3601,
      "æĸ¹": 3602,
      "racici": 3603,
      "Ġsapaha": 3604,
      "papse": 3605,
      "Ġkinra": 3606,
      "paninpa": 3607,
      "wentarapte": 3608,
      "]=": 3609,
      "asuru": 3610,
      "ear": 3611,
      "ekiroroan": 3612,
      "ikan": 3613,
      "itura": 3614,
      "å¾": 3615,
      "ĠĠ": 3616,
      "Ĳ½": 3617,
      "kapa": 3618,
      "way": 3619,
      "siparo": 3620,
      "simoye": 3621,
      "usar": 3622,
      "Ġkasu": 3623,
      "yayu": 3624,
      "kotata": 3625,
      "cironnup": 3626,
      "tese": 3627,
      "reko": 3628,
      "rehe": 3629,
      "sai": 3630,
      "Ġcisekor": 3631,
      "pito": 3632,
      "Ġkoko": 3633,
      "Ġkopak": 3634,
      "sucihi": 3635,
      "kusuri": 3636,
      "ruki": 3637,
      "humne": 3638,
      "Ġkorkay": 3639,
      "oraye": 3640,
      "koyruska": 3641,
      "Ġsirpirka": 3642,
      "Ġnuwap": 3643,
      "rkeri": 3644,
      "ãĤĴä½ľ": 3645,
      "sintoko": 3646,
      "roto": 3647,
      "maknatara": 3648,
      "Ġmatkor": 3649,
      "neypeka": 3650,
      "Ġsapanekur": 3651,
      "onnekur": 3652,
      "eysoytak": 3653,
      "ãģĬæ¯į": 3654,
      "piskan": 3655,
      "Ġkurkasi": 3656,
      "sermaka": 3657,
      "kaopas": 3658,
      "ãģķãĤĵãģĭ": 3659,
      "kutkor": 3660,
      "puyne": 3661,
      "çĶ·": 3662,
      "çĶŁ": 3663,
      "Ġrepunkur": 3664,
      "Ġcinki": 3665,
      "naanakpo": 3666,
      "æ±ģ": 3667,
      "Ġreyereye": 3668,
      "å¹´": 3669,
      "éĩĳ": 3670,
      "ä¾Ľ": 3671,
      "nanuhu": 3672,
      "pkir": 3673,
      "wsa": 3674,
      "æķ": 3675,
      "ç©": 3676,
      "ç¾": 3677,
      "Ġgo": 3678,
      "ĴãģĦ": 3679,
      "sirka": 3680,
      "noy": 3681,
      "yapte": 3682,
      "yairayke": 3683,
      "Ġikon": 3684,
      "ciyehe": 3685,
      "nai": 3686,
      "tew": 3687,
      "pete": 3688,
      "pere": 3689,
      "nip": 3690,
      "nipes": 3691,
      "Ġyaku": 3692,
      "Ġnam": 3693,
      "superanto": 3694,
      "Ġkuskeray": 3695,
      "Ġsamamni": 3696,
      "Ġhok": 3697,
      "Ġresuy": 3698,
      "Ġcisehe": 3699,
      "Ġmosma": 3700,
      "kotankorkur": 3701,
      "Ġmike": 3702,
      "arpare": 3703,
      "sipinpa": 3704,
      "hawke": 3705,
      "eattukonna": 3706,
      "rapto": 3707,
      "eyyok": 3708,
      "goku": 3709,
      "mpaku": 3710,
      "caroyki": 3711,
      "skarap": 3712,
      "samake": 3713,
      "Ġyayeisoytak": 3714,
      "toop": 3715,
      "Ġbun": 3716,
      "rorunpe": 3717,
      "toykopakasnu": 3718,
      "hankeno": 3719,
      "ï¼Łï¼ī": 3720,
      "Ġcorpokke": 3721,
      "Ġmukar": 3722,
      "oharkiso": 3723,
      "ineapkusun": 3724,
      "åĲĪ": 3725,
      "kewehomsu": 3726,
      "siturire": 3727,
      "kikirmuy": 3728,
      "Ġhoraociwe": 3729,
      "pawetenke": 3730,
      "ä»ĬæĹ¥ãģ¯": 3731,
      "corpok": 3732,
      "ekasuy": 3733,
      "esampe": 3734,
      "ekimun": 3735,
      "gakko": 3736,
      "imi": 3737,
      "ios": 3738,
      "rus": 3739,
      "°ãģĭ": 3740,
      "èĨ": 3741,
      "nepa": 3742,
      "Ġamkir": 3743,
      "uskari": 3744,
      "kesinne": 3745,
      "kekke": 3746,
      "Ġepakasnu": 3747,
      "kisar": 3748,
      "kokarkar": 3749,
      "kooripak": 3750,
      "koyayattasa": 3751,
      "pasi": 3752,
      "Ġsusu": 3753,
      "masa": 3754,
      "Ġyaci": 3755,
      "sarampe": 3756,
      "Ġpakehe": 3757,
      "Ġcisoyekatta": 3758,
      "hoo": 3759,
      "hot": 3760,
      "hokus": 3761,
      "Ġkotuk": 3762,
      "hemka": 3763,
      "yayse": 3764,
      "yayturasinot": 3765,
      "Ġset": 3766,
      "Ġhot": 3767,
      "Ġarwen": 3768,
      "yoyo": 3769,
      "punpare": 3770,
      "ãģŁãĤĪ": 3771,
      "usayne": 3772,
      "casi": 3773,
      "Ġnuma": 3774,
      "hunke": 3775,
      "sinta": 3776,
      "Ġpukuru": 3777,
      "ãģ£ãģ¦ãģĦãģĨ": 3778,
      "ãĤĵãģ¨": 3779,
      "Ġnenpoka": 3780,
      "moymoye": 3781,
      "Ġrin": 3782,
      "Ġranko": 3783,
      "suyesuye": 3784,
      "surpa": 3785,
      "eyapkir": 3786,
      "Ġosmak": 3787,
      "kannatki": 3788,
      "horari": 3789,
      "mkoraci": 3790,
      "Ġmosmano": 3791,
      "Ġsiruwante": 3792,
      "Ġhetukpa": 3793,
      "emaka": 3794,
      "isi": 3795,
      "ira": 3796,
      "syou": 3797,
      "ukasuy": 3798,
      "uneno": 3799,
      "åĢ": 3800,
      "æ®": 3801,
      "Ł³": 3802,
      "neni": 3803,
      "kamu": 3804,
      "kaoyki": 3805,
      "Ġatay": 3806,
      "Ġnesi": 3807,
      "Ġenitan": 3808,
      "Ġesirkirap": 3809,
      "koturse": 3810,
      "Ġtara": 3811,
      "Ġyaun": 3812,
      "pepi": 3813,
      "sey": 3814,
      "Ġure": 3815,
      "Ġpata": 3816,
      "Ġpawe": 3817,
      "Ġpaste": 3818,
      "tarka": 3819,
      "Ġniske": 3820,
      "Ġtumama": 3821,
      "soya": 3822,
      "Ġarkehe": 3823,
      "matkaci": 3824,
      "aste": 3825,
      "Ġmour": 3826,
      "inehempak": 3827,
      "tokpa": 3828,
      "Ġtem": 3829,
      "makani": 3830,
      "hawehe": 3831,
      "tciwre": 3832,
      "Ġuweturaste": 3833,
      "ãģĿãĤĮ": 3834,
      "Ġoyak": 3835,
      "Ġkinasut": 3836,
      "Ġayke": 3837,
      "kkewe": 3838,
      "æĿĳ": 3839,
      "iramante": 3840,
      "ikokanu": 3841,
      "Ġsenzyu": 3842,
      "åĲį": 3843,
      "horipi": 3844,
      "ãģĹãģ¾ãģ£ãģŁ": 3845,
      "haysitomare": 3846,
      "Ġkakkok": 3847,
      ").": 3848,
      "corawki": 3849,
      "dan": 3850,
      "ese": 3851,
      "iy": 3852,
      "mma": 3853,
      "pane": 3854,
      "uren": 3855,
      "uenewsar": 3856,
      "ç·": 3857,
      "tayki": 3858,
      "sitto": 3859,
      "Ġkaki": 3860,
      "Ġkatun": 3861,
      "Ġkasike": 3862,
      "Ġekot": 3863,
      "kinne": 3864,
      "kopak": 3865,
      "korar": 3866,
      "pakehe": 3867,
      "Ġip": 3868,
      "Ġisa": 3869,
      "Ġimek": 3870,
      "Ġimeru": 3871,
      "Ġociwe": 3872,
      "rite": 3873,
      "onto": 3874,
      "Ġpetaru": 3875,
      "pokun": 3876,
      "Ġuhunak": 3877,
      "mosem": 3878,
      "Ġnaani": 3879,
      "Ġsoya": 3880,
      "Ġsoatay": 3881,
      "hapapa": 3882,
      "Ġnisap": 3883,
      "Ġsay": 3884,
      "sokar": 3885,
      "punpe": 3886,
      "Ġyayka": 3887,
      "ãĢģâĢ¦": 3888,
      "Ġsinewe": 3889,
      "Ġuskehe": 3890,
      "ãĥĭ": 3891,
      "ãĥĴ": 3892,
      "ãĤīãģªãģĦ": 3893,
      "etakasure": 3894,
      "sakku": 3895,
      "kosimat": 3896,
      "ãģĬãģĦ": 3897,
      "eyayrayke": 3898,
      "Ġrametokkor": 3899,
      "Ġtusuy": 3900,
      "ãģ¡ãĤĩ": 3901,
      "Ġsirkirap": 3902,
      "iyomap": 3903,
      "è¨Ģãģ£ãģ¦": 3904,
      "atpake": 3905,
      "rorunpuyar": 3906,
      "yupne": 3907,
      "rarak": 3908,
      "åħĥ": 3909,
      "ä»ķ": 3910,
      "ekopi": 3911,
      "sinasina": 3912,
      "ewtanne": 3913,
      "å°ĳ": 3914,
      "honihi": 3915,
      "ineapkus": 3916,
      "Ġupsoro": 3917,
      "tuyaskarap": 3918,
      "Ġeepakke": 3919,
      "Ġotusuy": 3920,
      "piskanike": 3921,
      ",âĢĿ": 3922,
      "ataye": 3923,
      "ewen": 3924,
      "hnta": 3925,
      "iso": 3926,
      "kkusu": 3927,
      "nno": 3928,
      "uwomare": 3929,
      "zen": 3930,
      "æĭ": 3931,
      "Ġ200": 3932,
      "Ġnek": 3933,
      "sim": 3934,
      "sit": 3935,
      "Ġkasuno": 3936,
      "Ġean": 3937,
      "Ġese": 3938,
      "Ġehanke": 3939,
      "Ġekupa": 3940,
      "yaske": 3941,
      "kouhuyka": 3942,
      "Ġio": 3943,
      "Ġiri": 3944,
      "Ġicakkere": 3945,
      "Ġosikkote": 3946,
      "mar": 3947,
      "tuci": 3948,
      "Ġoran": 3949,
      "Ġsiante": 3950,
      "Ġsipasekamuy": 3951,
      "Ġukoysoytak": 3952,
      "ãĤ³": 3953,
      "ramne": 3954,
      "homo": 3955,
      "kamuykoyayrayke": 3956,
      "Ġkosne": 3957,
      "Ġnot": 3958,
      "Ġtumun": 3959,
      "Ġtumasnu": 3960,
      "yayram": 3961,
      "yaykorpare": 3962,
      "Ġsesek": 3963,
      "ruoka": 3964,
      "Ġsasi": 3965,
      "Ġsayo": 3966,
      "matsu": 3967,
      "Ġcak": 3968,
      "kunneywano": 3969,
      "Ġhuri": 3970,
      "Ġpakkay": 3971,
      "enepo": 3972,
      "Ġsirsesek": 3973,
      "nkaro": 3974,
      "Ġnum": 3975,
      "Ġmik": 3976,
      "Ġsinewpa": 3977,
      "toyse": 3978,
      "Ġsakekar": 3979,
      "ãģ¾ãģĹãĤĩãģĨ": 3980,
      "Ġyayey": 3981,
      "Ġemkoho": 3982,
      "shitsu": 3983,
      "Ġkoyaywennukar": 3984,
      "åĪĩ": 3985,
      "Ġpasekamuy": 3986,
      "Ġpasrota": 3987,
      "siretok": 3988,
      "cikiri": 3989,
      "motoho": 3990,
      "Ġinan": 3991,
      "Ġhunara": 3992,
      "weysampekor": 3993,
      "sikkasma": 3994,
      "èģŀãģĦãģŁ": 3995,
      "Ġhousya": 3996,
      "tukarike": 3997,
      "Ġracitke": 3998,
      "Ġetokus": 3999,
      "isoneka": 4000,
      "siparosukere": 4001,
      "aan": 4002,
      "de": 4003,
      "ikasuy": 4004,
      "ohaw": 4005,
      "wke": 4006,
      "¶³": 4007,
      "åĴ": 4008,
      "æĬ": 4009,
      "ç½": 4010,
      "çĨ": 4011,
      "çĬ¬": 4012,
      "èĲ½": 4013,
      "Ġ/": 4014,
      "Ġãģ¦ãĤĤ": 4015,
      "Ġfu": 4016,
      "kaku": 4017,
      "tat": 4018,
      "Ġanun": 4019,
      "yasa": 4020,
      "yayayse": 4021,
      "konu": 4022,
      "kokanu": 4023,
      "kohosipire": 4024,
      "paha": 4025,
      "Ġiso": 4026,
      "Ġipone": 4027,
      "Ġimoma": 4028,
      "uype": 4029,
      "rik": 4030,
      "Ġsitto": 4031,
      "Ġsikihi": 4032,
      "Ġsikirpa": 4033,
      "poke": 4034,
      "posore": 4035,
      "Ġukoramkor": 4036,
      "Ġumma": 4037,
      "akun": 4038,
      "mono": 4039,
      "Ġkusukeraypo": 4040,
      "ninu": 4041,
      "nihon": 4042,
      "nisat": 4043,
      "Ġciesonere": 4044,
      "pisi": 4045,
      "ãĤ¢": 4046,
      "ãĤ¹": 4047,
      "hotuypa": 4048,
      "Ġnokan": 4049,
      "Ġpipa": 4050,
      "Ġpirkep": 4051,
      "Ġhepe": 4052,
      "Ġheru": 4053,
      "Ġheper": 4054,
      "Ġhetopo": 4055,
      "yaysitoma": 4056,
      "Ġcu": 4057,
      "Ġcuk": 4058,
      "Ġkorkayki": 4059,
      "ramutuy": 4060,
      "aniw": 4061,
      "ãģĦãĤį": 4062,
      "ãģŁãģĭ": 4063,
      "onawtari": 4064,
      "Ġeawnarura": 4065,
      "Ġteyne": 4066,
      "eikka": 4067,
      "Ġusat": 4068,
      "sinuynak": 4069,
      "ç§ģãģ«": 4070,
      "Ġrur": 4071,
      "paskuma": 4072,
      "Ġmosirhoppa": 4073,
      "nenkane": 4074,
      "resisam": 4075,
      "ãĤĪãģı": 4076,
      "ãģĬãģĹãģĦ": 4077,
      "omanne": 4078,
      "Ġ18": 4079,
      "ninpaninpa": 4080,
      "kohekiru": 4081,
      "åħĪ": 4082,
      "Ġyupihi": 4083,
      "Ġcikappo": 4084,
      "æĹ©ãģı": 4085,
      "ãĤįãģĨ": 4086,
      "siresikte": 4087,
      "sikoekte": 4088,
      "tunaska": 4089,
      "mosmano": 4090,
      "poyke": 4091,
      "tumpu": 4092,
      "Ġnaanakpo": 4093,
      "Ġhaahoo": 4094,
      "éĸĵ": 4095,
      "Ġkemapase": 4096,
      "racitkere": 4097,
      "åħĥæ°Ĺ": 4098,
      "ae": 4099,
      "io": 4100,
      "icakkere": 4101,
      "musu": 4102,
      "ukattuymano": 4103,
      "æģ": 4104,
      "ç²": 4105,
      "è»": 4106,
      "èĭ": 4107,
      "éł": 4108,
      "Ġx": 4109,
      "Ġxxx": 4110,
      "kaki": 4111,
      "orke": 4112,
      "Ġaki": 4113,
      "Ġaoka": 4114,
      "tayne": 4115,
      "Ġpus": 4116,
      "Ġhani": 4117,
      "wat": 4118,
      "Ġkata": 4119,
      "Ġkama": 4120,
      "kerkeri": 4121,
      "kokka": 4122,
      "konoye": 4123,
      "kotomka": 4124,
      "Ġios": 4125,
      "Ġikaopiwki": 4126,
      "Ġiarmoysam": 4127,
      "Ġikuresuye": 4128,
      "rataskep": 4129,
      "Ġokikurmi": 4130,
      "Ġokannatki": 4131,
      "nupa": 4132,
      "....": 4133,
      "Ġtasa": 4134,
      "Ġtawki": 4135,
      "Ġsisak": 4136,
      "pop": 4137,
      "sep": 4138,
      "sesekka": 4139,
      "hinta": 4140,
      "Ġparur": 4141,
      "hoka": 4142,
      "suto": 4143,
      "Ġhaweas": 4144,
      "hetuku": 4145,
      "yaykurka": 4146,
      "Ġhotanu": 4147,
      "Ġhawkor": 4148,
      "kuskeraypo": 4149,
      "Ġwensiante": 4150,
      "Ġcisekar": 4151,
      "Ġponmat": 4152,
      "Ġnepkon": 4153,
      "Ġnankora": 4154,
      "Ġmaka": 4155,
      "Ġrapoki": 4156,
      "ãģªãĤī": 4157,
      "einonnoitak": 4158,
      "rotke": 4159,
      "ukokor": 4160,
      "ãĥ³": 4161,
      "ãĥĪ": 4162,
      "Ġapekur": 4163,
      "eramutuy": 4164,
      "katkor": 4165,
      "Ġapasam": 4166,
      "ãģªãģĦãģ¦": 4167,
      "ãģ¡ãĤĥ": 4168,
      "surku": 4169,
      "tonoto": 4170,
      "Ġsinnatoyne": 4171,
      "Ġba": 4172,
      "perpa": 4173,
      "satsatu": 4174,
      "Ġoharkiso": 4175,
      "hentomani": 4176,
      "Ġeutanne": 4177,
      "ç¥ŀ": 4178,
      "æĢĿãģĨ": 4179,
      "upsoromare": 4180,
      "å¸°": 4181,
      "åľ°": 4182,
      "Ġasikne": 4183,
      "Ġawanki": 4184,
      "éħĴ": 4185,
      "ÃĹÃĹï¼Ī": 4186,
      "æĪ¸": 4187,
      "ãģĬæ¯įãģķãĤĵ": 4188,
      "22": 4189,
      "casnuka": 4190,
      "esik": 4191,
      "esan": 4192,
      "ehorka": 4193,
      "itara": 4194,
      "kki": 4195,
      "sha": 4196,
      "ukoyki": 4197,
      "¬ĳ": 4198,
      "ç¬ĳ": 4199,
      "èĤ": 4200,
      "ĠãģĹãģŁ": 4201,
      "orun": 4202,
      "tasum": 4203,
      "Ġannoski": 4204,
      "usni": 4205,
      "Ġesir": 4206,
      "Ġeyayko": 4207,
      "Ġeposo": 4208,
      "kokarkari": 4209,
      "Ġiramu": 4210,
      "ratki": 4211,
      "Ġtasiro": 4212,
      "tonon": 4213,
      "toska": 4214,
      "Ġsietok": 4215,
      "pekor": 4216,
      "sew": 4217,
      "hima": 4218,
      "Ġpahaw": 4219,
      "Ġkuruma": 4220,
      "Ġkoo": 4221,
      "sutke": 4222,
      "Ġpikan": 4223,
      "Ġpisakku": 4224,
      "okapaste": 4225,
      "Ġsemkoraci": 4226,
      "Ġenene": 4227,
      "soyo": 4228,
      "Ġhomo": 4229,
      "matkarku": 4230,
      "ãģĦãģª": 4231,
      "Ġwenpuri": 4232,
      "Ġkotanu": 4233,
      "ttat": 4234,
      "Ġsirun": 4235,
      "ãģ®ãģĭ": 4236,
      "Ġnumke": 4237,
      "ãģ¨ãĤĤ": 4238,
      "Ġsinnurappa": 4239,
      "Ġpetturasi": 4240,
      "ãģĤãģ®å": 4241,
      "ãģĤãģ®ç": 4242,
      "wakane": 4243,
      "soyke": 4244,
      "moysak": 4245,
      "kosini": 4246,
      "kewsutu": 4247,
      "Ġramuosma": 4248,
      "Ġtumkor": 4249,
      "acautari": 4250,
      "anakki": 4251,
      "âħ´1": 4252,
      "Ġinumpe": 4253,
      "apto": 4254,
      "Ġmunnuye": 4255,
      "çī©ãĤĴ": 4256,
      "ãĤģãĤĭ": 4257,
      "Ġtompi": 4258,
      "ukaosmare": 4259,
      "Ġewonne": 4260,
      "siruwante": 4261,
      "Ġkotcake": 4262,
      "kemaha": 4263,
      "eham": 4264,
      "koramuosma": 4265,
      "Ġkirpu": 4266,
      "æĮģãģ£ãģ¦": 4267,
      "èī¯": 4268,
      "çŁ¥": 4269,
      "kosinasina": 4270,
      "hoyuppare": 4271,
      "ä»ķäºĭ": 4272,
      "].": 4273,
      "eri": 4274,
      "ekewtumuwen": 4275,
      "kkar": 4276,
      "mpu": 4277,
      "oputuye": 4278,
      "yunkur": 4279,
      "¨ãģĭ": 4280,
      "è¿": 4281,
      "èĸ": 4282,
      "Ġãģ¦": 4283,
      "ankar": 4284,
      "wai": 4285,
      "sirar": 4286,
      "sikarun": 4287,
      "sitcasnuka": 4288,
      "kenas": 4289,
      "Ġepak": 4290,
      "Ġeran": 4291,
      "kotom": 4292,
      "kopepka": 4293,
      "cin": 4294,
      "cisekor": 4295,
      "Ġoposo": 4296,
      "Ġoyoyo": 4297,
      "Ġruska": 4298,
      "ontaro": 4299,
      "rekuci": 4300,
      "Ġsioka": 4301,
      "Ġura": 4302,
      "aktonoke": 4303,
      "hosari": 4304,
      "Ġsatke": 4305,
      "kaskamuye": 4306,
      "Ġsiriki": 4307,
      "ãģŁãĤģ": 4308,
      "usam": 4309,
      "aynuitak": 4310,
      "Ġyayram": 4311,
      "kotanne": 4312,
      "Ġramacihi": 4313,
      "Ġkarpa": 4314,
      "sipine": 4315,
      "karkarsere": 4316,
      "Ġti": 4317,
      "Ġhumpe": 4318,
      "Ġramutuy": 4319,
      "ceppo": 4320,
      "Ġotamuy": 4321,
      "minausi": 4322,
      "Ġrorunpuyar": 4323,
      "rewsire": 4324,
      "esoro": 4325,
      "paroyki": 4326,
      "Ġhorak": 4327,
      "rikip": 4328,
      "é£Łãģ¸ãģķ": 4329,
      "kokopan": 4330,
      "Ġtumikor": 4331,
      "sikoetaye": 4332,
      "kurkasike": 4333,
      "irwak": 4334,
      "koicarpa": 4335,
      "reyereye": 4336,
      "æ°Ĺãģĭ": 4337,
      "åıĸ": 4338,
      "yayapapu": 4339,
      "199": 4340,
      "Ġosisoun": 4341,
      "yaunmosir": 4342,
      "Ġ199": 4343,
      "Ġhakodate": 4344,
      "ãģ®ç¥ŀæ§ĺ": 4345,
      "27": 4346,
      "bq": 4347,
      "hano": 4348,
      "iti": 4349,
      "omon": 4350,
      "smat": 4351,
      "wnu": 4352,
      "zin": 4353,
      "¡Ķ": 4354,
      "åĮ": 4355,
      "æĤªãģĦ": 4356,
      "çĻ": 4357,
      "çľ": 4358,
      "Ġ<": 4359,
      "Ġzyu": 4360,
      "įĭ": 4361,
      "newa": 4362,
      "netopake": 4363,
      "oran": 4364,
      "orunkur": 4365,
      "Ġakor": 4366,
      "Ġara": 4367,
      "uno": 4368,
      "Ġkawari": 4369,
      "koyaykopuntek": 4370,
      "komare": 4371,
      "Ġikesuy": 4372,
      "Ġiyaykipte": 4373,
      "cinne": 4374,
      "cikir": 4375,
      "ciwre": 4376,
      "Ġosir": 4377,
      "Ġtay": 4378,
      "maratto": 4379,
      "tupte": 4380,
      "Ġpero": 4381,
      "powtari": 4382,
      "Ġhatto": 4383,
      "sasi": 4384,
      "Ġparka": 4385,
      "Ġpakasnu": 4386,
      "Ġkamuykohepoki": 4387,
      "sirota": 4388,
      "hacir": 4389,
      "Ġnit": 4390,
      "Ġpirpa": 4391,
      "Ġhekiru": 4392,
      "Ġhemespa": 4393,
      "Ġkushiro": 4394,
      "tuytuye": 4395,
      "Ġwenpe": 4396,
      "mut": 4397,
      "koypokun": 4398,
      "Ġsirsimoye": 4399,
      "Ġnukuri": 4400,
      "ãģĹãģªãģķãģĦ": 4401,
      "keste": 4402,
      "ciskar": 4403,
      "Ġapekes": 4404,
      "Ġkanni": 4405,
      "Ġukoutur": 4406,
      "Ġeunkeray": 4407,
      "mippoutari": 4408,
      "moytak": 4409,
      "moni": 4410,
      "Ġahupte": 4411,
      "Ġ11": 4412,
      "ï¼Īï¼Łï¼ī": 4413,
      "Ġuepeker": 4414,
      "Ġgakko": 4415,
      "äººãģ¯": 4416,
      "kenca": 4417,
      "Ġorewan": 4418,
      "è¡Įãģ£ãģ¦": 4419,
      "otuwasi": 4420,
      "kuyra": 4421,
      "caktek": 4422,
      "000": 4423,
      "Ġputuhu": 4424,
      "Ġnuynak": 4425,
      "tumikor": 4426,
      "Ġuhuyka": 4427,
      "Ġtokkoni": 4428,
      "canup": 4429,
      "kopayar": 4430,
      "Ġhoripi": 4431,
      "Ġineapkusun": 4432,
      "å·Ŀä¸Ĭ": 4433,
      "ãĥ¼ãĥķ": 4434,
      "æĺĶ": 4435,
      "Ġutaspa": 4436,
      "kosukupkur": 4437,
      "Ġsuttom": 4438,
      "mososo": 4439,
      "Ġsikteno": 4440,
      "åĳ³": 4441,
      "å¿ĥ": 4442,
      "rototke": 4443,
      "ç¾İ": 4444,
      "23": 4445,
      "etomte": 4446,
      "ekupa": 4447,
      "hora": 4448,
      "huye": 4449,
      "ikusu": 4450,
      "ison": 4451,
      "rpe": 4452,
      "umomare": 4453,
      "zai": 4454,
      "åĬ": 4455,
      "æİ": 4456,
      "ç´": 4457,
      "Ġanpe": 4458,
      "usey": 4459,
      "Ġeomanan": 4460,
      "Ġekoykaun": 4461,
      "nok": 4462,
      "kohopuni": 4463,
      "korpa": 4464,
      "uyruke": 4465,
      "cisi": 4466,
      "Ġomke": 4467,
      "rinne": 4468,
      "rimse": 4469,
      "masi": 4470,
      "tone": 4471,
      "tesu": 4472,
      "tupe": 4473,
      "Ġsikka": 4474,
      "Ġsikuma": 4475,
      "Ġsietu": 4476,
      "Ġsisirmuka": 4477,
      "mokka": 4478,
      "Ġhapapa": 4479,
      "Ġkusur": 4480,
      "Ġokayama": 4481,
      "sironuman": 4482,
      "tektek": 4483,
      "Ġnociw": 4484,
      "Ġniste": 4485,
      "Ġnikne": 4486,
      "samne": 4487,
      "Ġuna": 4488,
      "mean": 4489,
      "mewe": 4490,
      "Ġtumu": 4491,
      "kusur": 4492,
      "Ġseturu": 4493,
      "konnu": 4494,
      "Ġikiri": 4495,
      "Ġkere": 4496,
      "Ġrekte": 4497,
      "Ġhuresisam": 4498,
      "Ġkotanuhu": 4499,
      "ãģĭãģĦ": 4500,
      "Ġmozi": 4501,
      "Ġmosem": 4502,
      "Ġyepa": 4503,
      "kanuye": 4504,
      "Ġecioka": 4505,
      "ãģªãĤĵ": 4506,
      "sinenne": 4507,
      "ãģ¨ãģį": 4508,
      "unukas": 4509,
      "ukoitak": 4510,
      "tuyere": 4511,
      "kesne": 4512,
      "Ġtapkar": 4513,
      "ãĥĨ": 4514,
      "Ġtanpe": 4515,
      "ãģĵãĤĮ": 4516,
      "kosikiru": 4517,
      "ãģįãĤĮ": 4518,
      "ãĤĬãģŁãģĦ": 4519,
      "Ġneyun": 4520,
      "koyaykus": 4521,
      "esina": 4522,
      "Ġrupnepa": 4523,
      "caro": 4524,
      "shin": 4525,
      "è¨ĢãĤı": 4526,
      "ahupkar": 4527,
      "osisoun": 4528,
      "kootke": 4529,
      "kootekna": 4530,
      "è¡Įãģı": 4531,
      "sunku": 4532,
      "yokai": 4533,
      "orura": 4534,
      "Ġshigeru": 4535,
      "Ġparoho": 4536,
      "Ġrikunmosir": 4537,
      "åº§": 4538,
      "Ġfonto": 4539,
      "å¤§ãģį": 4540,
      "kotcake": 4541,
      "ãģ¾ãģĻãĤĪ": 4542,
      "Ġyayapapu": 4543,
      "Ġenune": 4544,
      "pututu": 4545,
      "sermakus": 4546,
      "ç½®": 4547,
      "hanokka": 4548,
      "25": 4549,
      "26": 4550,
      "=(": 4551,
      "am": 4552,
      "itto": 4553,
      "nke": 4554,
      "puyna": 4555,
      "ron": 4556,
      "snatara": 4557,
      "skosanpa": 4558,
      "toro": 4559,
      "ui": 4560,
      "uwante": 4561,
      "çĽ": 4562,
      "çħ®": 4563,
      "èı": 4564,
      "ancikar": 4565,
      "taanpe": 4566,
      "Ġnesko": 4567,
      "Ġhus": 4568,
      "sio": 4569,
      "Ġano": 4570,
      "Ġkasuy": 4571,
      "kerpa": 4572,
      "Ġeus": 4573,
      "Ġeko": 4574,
      "kitay": 4575,
      "kou": 4576,
      "pasari": 4577,
      "cik": 4578,
      "Ġomo": 4579,
      "Ġokikirmuy": 4580,
      "nukan": 4581,
      "teyne": 4582,
      "onuytasa": 4583,
      "Ġsiki": 4584,
      "Ġsiko": 4585,
      "seturu": 4586,
      "Ġuren": 4587,
      "Ġupakno": 4588,
      "mozi": 4589,
      "nit": 4590,
      "nibutani": 4591,
      "Ġkinup": 4592,
      "Ġciw": 4593,
      "kuwa": 4594,
      "mik": 4595,
      "hopunpare": 4596,
      "siran": 4597,
      "Ġkuneywa": 4598,
      "Ġkokka": 4599,
      "yuta": 4600,
      "haa": 4601,
      "Ġpita": 4602,
      "saman": 4603,
      "yayramekote": 4604,
      "kusai": 4605,
      "ãģ¦ãģĤ": 4606,
      "ãģ¦ãģĤãĤĭ": 4607,
      "kurok": 4608,
      "Ġkotanpa": 4609,
      "Ġsirpo": 4610,
      "Ġyaymon": 4611,
      "Ġmatu": 4612,
      "ãĤĴè¦ĭ": 4613,
      "eattukonno": 4614,
      "ãĥª": 4615,
      "Ġtanukuran": 4616,
      "Ġrammano": 4617,
      "turpa": 4618,
      "tcipi": 4619,
      "Ġeigo": 4620,
      "eramuoka": 4621,
      "ãģĬçĪ¶": 4622,
      "oyna": 4623,
      "mkosanpa": 4624,
      "Ġrapokta": 4625,
      "Ġtuymano": 4626,
      "ãģĿãģĵ": 4627,
      "Ġranma": 4628,
      "äºĮ": 4629,
      "repasi": 4630,
      "Ġkannakamuy": 4631,
      "Ġmaknatara": 4632,
      "uekarpa": 4633,
      "tomot": 4634,
      "tomotuye": 4635,
      "kokowe": 4636,
      "pirma": 4637,
      "kuykuy": 4638,
      "ohasir": 4639,
      "ohayne": 4640,
      "gengo": 4641,
      "æĿ¥ãģ¦": 4642,
      "æĿ¥ãĤĭ": 4643,
      "Ġpunki": 4644,
      "koipuni": 4645,
      "Ġsineanta": 4646,
      "Ġtukno": 4647,
      "Ġitaki": 4648,
      "ãģ«ãģªãĤĭ": 4649,
      "Ġsirutu": 4650,
      "yaykinne": 4651,
      "ä¸ĭãģķãģĦ": 4652,
      "Ġturimimse": 4653,
      "Ġtanpaku": 4654,
      "Ġpoknamosir": 4655,
      "Ġnippon": 4656,
      "yanou": 4657,
      "Ġsinnayno": 4658,
      "Ġiyosno": 4659,
      "å°ĳãģĹ": 4660,
      "canupkor": 4661,
      "24": 4662,
      "ao": 4663,
      "arka": 4664,
      "cok": 4665,
      "epitta": 4666,
      "esoyne": 4667,
      "emus": 4668,
      "esikte": 4669,
      "iwa": 4670,
      "ikka": 4671,
      "osurpa": 4672,
      "rr": 4673,
      "ukor": 4674,
      "ukoraye": 4675,
      "wnatara": 4676,
      "è¶³": 4677,
      "é¢": 4678,
      "éįĭ": 4679,
      "ĳī": 4680,
      "anani": 4681,
      "kama": 4682,
      "orsutke": 4683,
      "Ġpuye": 4684,
      "Ġnekusu": 4685,
      "siumu": 4686,
      "uspu": 4687,
      "unpa": 4688,
      "Ġkamihi": 4689,
      "Ġeha": 4690,
      "Ġemaka": 4691,
      "noyne": 4692,
      "Ġiwanke": 4693,
      "Ġiyupne": 4694,
      "uyse": 4695,
      "rai": 4696,
      "Ġsuwe": 4697,
      "Ġshu": 4698,
      "Ġsyo": 4699,
      "Ġoara": 4700,
      "Ġouse": 4701,
      "numnu": 4702,
      "rir": 4703,
      "Ġkorpa": 4704,
      "totto": 4705,
      "tomoytak": 4706,
      "tei": 4707,
      "Ġsipase": 4708,
      "Ġsiyuk": 4709,
      "Ġsippo": 4710,
      "niska": 4711,
      "niwse": 4712,
      "Ġkisar": 4713,
      "piski": 4714,
      "hai": 4715,
      "Ġnonno": 4716,
      "Ġnisu": 4717,
      "mekar": 4718,
      "hepuni": 4719,
      "hewpa": 4720,
      "okaamkir": 4721,
      "kkaci": 4722,
      "Ġsawre": 4723,
      "Ġsasuysir": 4724,
      "rayrinne": 4725,
      "sokor": 4726,
      "nnen": 4727,
      "ãģĭãģª": 4728,
      "ãģĭãģµ": 4729,
      "ãģĭçĹĽ": 4730,
      "enene": 4731,
      "Ġsune": 4732,
      "cape": 4733,
      "Ġpopke": 4734,
      "Ġnankonna": 4735,
      "tunuyse": 4736,
      "rogu": 4737,
      "Ġsinpuy": 4738,
      "Ġsinuynak": 4739,
      "kessak": 4740,
      "hawkor": 4741,
      "ãģķãģª": 4742,
      "Ġkanciw": 4743,
      "ãģĵãģĵ": 4744,
      "sakke": 4745,
      "Ġsakno": 4746,
      "mippoho": 4747,
      "sikerayke": 4748,
      "Ġsamormosir": 4749,
      "utarpa": 4750,
      "ikeka": 4751,
      "butsu": 4752,
      "Ġtoranne": 4753,
      "oyakke": 4754,
      "ruyanpe": 4755,
      "korapapse": 4756,
      "ãģĭãĤīãģªãģĦ": 4757,
      "Ġerampetek": 4758,
      "pekapeka": 4759,
      "Ġmacikor": 4760,
      "Ġinukuri": 4761,
      "ositciwre": 4762,
      "renkayne": 4763,
      "ãģ®çļ®": 4764,
      "otuwan": 4765,
      "Ġoriwak": 4766,
      "ãĤĵãģŁãĤĪ": 4767,
      "kinasut": 4768,
      "mawkowen": 4769,
      "yapkir": 4770,
      "ãĤģãģ¦": 4771,
      "Ġapka": 4772,
      "Ġsipine": 4773,
      "Ġsipini": 4774,
      "Ġkaskot": 4775,
      "Ġsiwnin": 4776,
      "å°ıãģķãģĦ": 4777,
      "åº¦": 4778,
      "temnikor": 4779,
      "asinno": 4780,
      "topattumi": 4781,
      "rametokkor": 4782,
      "å£°": 4783,
      "kurabu": 4784,
      "Ġottena": 4785,
      "ç«ĭ": 4786,
      "Ġikonpap": 4787,
      "ttatni": 4788,
      "Ġakorak": 4789,
      "numnumu": 4790,
      "roguramu": 4791,
      "50": 4792,
      "80": 4793,
      "aru": 4794,
      "ekar": 4795,
      "emu": 4796,
      "ekote": 4797,
      "ehopuni": 4798,
      "ie": 4799,
      "ipokas": 4800,
      "isepo": 4801,
      "kyokai": 4802,
      "nunuka": 4803,
      "zon": 4804,
      "·ãģĦ": 4805,
      "¹¿": 4806,
      "½ãģĦ": 4807,
      "å¡": 4808,
      "åŃ": 4809,
      "æĻĤ": 4810,
      "çķ": 4811,
      "Ġwey": 4812,
      "ĥĮ": 4813,
      "anna": 4814,
      "neanpe": 4815,
      "siyeye": 4816,
      "unni": 4817,
      "Ġeki": 4818,
      "Ġeharkiso": 4819,
      "Ġetarka": 4820,
      "nokan": 4821,
      "yapo": 4822,
      "yaciki": 4823,
      "koiyomap": 4824,
      "pata": 4825,
      "Ġsho": 4826,
      "Ġrokun": 4827,
      "Ġtampaku": 4828,
      "masuy": 4829,
      "petun": 4830,
      "Ġruwehe": 4831,
      "Ġsono": 4832,
      "ramma": 4833,
      "hoci": 4834,
      "Ġkoku": 4835,
      "Ġnisike": 4836,
      "suci": 4837,
      "yaykar": 4838,
      "Ġsehu": 4839,
      "sokon": 4840,
      "arso": 4841,
      "Ġhotne": 4842,
      "Ġtokes": 4843,
      "Ġtopenpe": 4844,
      "puru": 4845,
      "kuso": 4846,
      "Ġikirihi": 4847,
      "ãģ¦ãģį": 4848,
      "Ġrekor": 4849,
      "Ġpayeoka": 4850,
      "Ġposantek": 4851,
      "Ġyaykurka": 4852,
      "Ġmasar": 4853,
      "Ġrari": 4854,
      "ãģªãģĭãģ£ãģŁ": 4855,
      "cisekar": 4856,
      "ãģ¨ãģĦãģĨ": 4857,
      "âĢ¦âĢ¦": 4858,
      "ukousaraye": 4859,
      "Ġsiknak": 4860,
      "Ġnenkane": 4861,
      "tursere": 4862,
      "pokin": 4863,
      "Ġsamani": 4864,
      "indo": 4865,
      "koyayyupu": 4866,
      "Ġiyoykir": 4867,
      "toru": 4868,
      "Ġirampita": 4869,
      "Ġsontak": 4870,
      "Ġterketerke": 4871,
      "Ġkampinuye": 4872,
      "Ġkinakar": 4873,
      "siwtoutari": 4874,
      "uekarire": 4875,
      "yayetokoyki": 4876,
      "Ġoyka": 4877,
      "daigaku": 4878,
      "senzyu": 4879,
      "rikikur": 4880,
      "Ġmur": 4881,
      "Ġtoop": 4882,
      "sikopa": 4883,
      "Ġosmake": 4884,
      "Ġhunna": 4885,
      "ãģĭæĤªãģĦ": 4886,
      "Ġuyruke": 4887,
      "kayop": 4888,
      "Ġkoypuni": 4889,
      "ä¸Ģç·": 4890,
      "tusare": 4891,
      "Ġninkari": 4892,
      "å¼ķ": 4893,
      "æĢĿãģ£ãģ¦": 4894,
      "sinotcaki": 4895,
      "æ§ĺåŃĲ": 4896,
      "mommomo": 4897,
      "å¤ĸãģ«": 4898,
      "çĿĢçī©": 4899,
      "Ġpawetok": 4900,
      "tononte": 4901,
      "ä¸Ģç·Ĵ": 4902,
      "30": 4903,
      "60": 4904,
      "epare": 4905,
      "iji": 4906,
      "irenka": 4907,
      "inonnoitak": 4908,
      "ikuresuye": 4909,
      "kg": 4910,
      "mte": 4911,
      "mnara": 4912,
      "rpare": 4913,
      "¼»": 4914,
      "åĻ": 4915,
      "æ²": 4916,
      "èĬ": 4917,
      "é¦": 4918,
      "Ġmuy": 4919,
      "Ġãģ«": 4920,
      "Ġam": 4921,
      "taci": 4922,
      "wayne": 4923,
      "siporo": 4924,
      "Ġkara": 4925,
      "Ġeri": 4926,
      "Ġekimatek": 4927,
      "kopuni": 4928,
      "koyupu": 4929,
      "koru": 4930,
      "pawa": 4931,
      "pakka": 4932,
      "uysir": 4933,
      "Ġosa": 4934,
      "Ġoyan": 4935,
      "Ġtaman": 4936,
      "matu": 4937,
      "mame": 4938,
      "tose": 4939,
      "Ġyaunkur": 4940,
      "teme": 4941,
      "Ġhita": 4942,
      "rekore": 4943,
      "Ġsipita": 4944,
      "posantek": 4945,
      "pokoma": 4946,
      "uwekarpare": 4947,
      "Ġutasa": 4948,
      "Ġupis": 4949,
      "Ġuturano": 4950,
      "Ġuterkere": 4951,
      "Ġuhoyuppare": 4952,
      "niske": 4953,
      "nitne": 4954,
      "Ġokaamkir": 4955,
      "Ġcici": 4956,
      "Ġcikupeni": 4957,
      "ãĤ¿": 4958,
      "tano": 4959,
      "hopi": 4960,
      "hotne": 4961,
      "hayok": 4962,
      "Ġhempara": 4963,
      "Ġsasini": 4964,
      "Ġarsoke": 4965,
      "Ġarorkisne": 4966,
      "huppa": 4967,
      "yomap": 4968,
      "tanean": 4969,
      "Ġcan": 4970,
      "Ġkei": 4971,
      "usatki": 4972,
      "kurpa": 4973,
      "ãģĭãģªãģĦ": 4974,
      "Ġponmosir": 4975,
      "muk": 4976,
      "okuyma": 4977,
      "caca": 4978,
      "kanrari": 4979,
      "Ġpop": 4980,
      "Ġyaykewkor": 4981,
      "Ġmakkaci": 4982,
      "pakte": 4983,
      "osor": 4984,
      "ossike": 4985,
      "tomciwre": 4986,
      "taraye": 4987,
      "enuye": 4988,
      "ç§ģãģŁãģ¡ãģ¯": 4989,
      "kironnu": 4990,
      "Ġteksama": 4991,
      "hawekoyki": 4992,
      "saroski": 4993,
      "Ġrir": 4994,
      "daka": 4995,
      "eyaysitoma": 4996,
      "Ġinawcipa": 4997,
      "Ġiyoski": 4998,
      "Ġiyokunnure": 4999,
      "oyakoyak": 5000,
      "Ġkarip": 5001,
      "ãģ®å®": 5002,
      "wakkaku": 5003,
      "Ġosor": 5004,
      "Ġestan": 5005,
      "Ġbaku": 5006,
      "è¡Įãģį": 5007,
      "Ġohasir": 5008,
      "ipor": 5009,
      "enisomap": 5010,
      "katuhu": 5011,
      "Ġponehe": 5012,
      "Ġironne": 5013,
      "Ġsipicar": 5014,
      "Ġ30": 5015,
      "turseka": 5016,
      "ãģĿãģĨãģŁ": 5017,
      "è¦ĭãģŁ": 5018,
      "Ġhokkaidou": 5019,
      "Ġhorippa": 5020,
      "Ġdamu": 5021,
      "casnure": 5022,
      "tokuyekor": 5023,
      "Ġpetetok": 5024,
      "nipeskar": 5025,
      "Ġhattoho": 5026,
      "Ġomoun": 5027,
      "Ġrokuntew": 5028,
      "sikopayar": 5029,
      "40": 5030,
      "68": 5031,
      "iwanke": 5032,
      "ikopuntek": 5033,
      "imoma": 5034,
      "oi": 5035,
      "osa": 5036,
      "okikurmi": 5037,
      "uru": 5038,
      "wri": 5039,
      "yun": 5040,
      "yani": 5041,
      "zawa": 5042,
      "ç¸": 5043,
      "é¼»": 5044,
      "katay": 5045,
      "kamure": 5046,
      "tasiro": 5047,
      "Ġhnta": 5048,
      "sihi": 5049,
      "kesu": 5050,
      "Ġer": 5051,
      "Ġesik": 5052,
      "Ġerup": 5053,
      "Ġetoyta": 5054,
      "kosik": 5055,
      "kootte": 5056,
      "koronno": 5057,
      "Ġiyayraykere": 5058,
      "Ġikkew": 5059,
      "Ġitese": 5060,
      "cikari": 5061,
      "citarpe": 5062,
      "Ġokerpa": 5063,
      "nasap": 5064,
      "tete": 5065,
      "teunno": 5066,
      "temka": 5067,
      "Ġorwa": 5068,
      "Ġorkehe": 5069,
      "Ġsikopayar": 5070,
      "sasuysir": 5071,
      "Ġpawse": 5072,
      "Ġcimakani": 5073,
      "kuga": 5074,
      "Ġsokoni": 5075,
      "siruye": 5076,
      "sirunno": 5077,
      "sirokane": 5078,
      "Ġkoan": 5079,
      "Ġkotoyse": 5080,
      "Ġnoiwan": 5081,
      "sampa": 5082,
      "ynemosir": 5083,
      "hepoki": 5084,
      "hetopo": 5085,
      "Ġhemuymuye": 5086,
      "yayomap": 5087,
      "Ġseki": 5088,
      "rui": 5089,
      "arkehe": 5090,
      "matki": 5091,
      "Ġhawkokari": 5092,
      "Ġwensirkur": 5093,
      "Ġkep": 5094,
      "Ġhup": 5095,
      "ãģĭãĤı": 5096,
      "Ġyayturasinot": 5097,
      "Ġeattukonno": 5098,
      "kapus": 5099,
      "Ġipetam": 5100,
      "rkes": 5101,
      "Ġmip": 5102,
      "yaykotuyasi": 5103,
      "sinnutapka": 5104,
      "Ġsanteke": 5105,
      "Ġsinrici": 5106,
      "Ġcikiri": 5107,
      "ãĥģ": 5108,
      "tokom": 5109,
      "ãĤĤãģªãģĦ": 5110,
      "eymek": 5111,
      "ãģĻãģĭ": 5112,
      "Ġtoykamuy": 5113,
      "Ġtoytoy": 5114,
      "Ġeirpak": 5115,
      "ãģĬéĩĳ": 5116,
      "koyaykatanu": 5117,
      "ahunte": 5118,
      "Ġtyu": 5119,
      "huyne": 5120,
      "iyohaysitomare": 5121,
      "kamke": 5122,
      "Ġeykoytupa": 5123,
      "uepekennu": 5124,
      "osiraye": 5125,
      "Ġonnayke": 5126,
      "Ġpokonka": 5127,
      "Ġnokaha": 5128,
      "ewkoyaykopuntek": 5129,
      "è¦ª": 5130,
      "Ġminzoku": 5131,
      "Ġasinpe": 5132,
      "ãģ¿ãĤĵãģª": 5133,
      "ramekotpa": 5134,
      "cikappo": 5135,
      "éģł": 5136,
      "Ġpencay": 5137,
      "Ġetuhu": 5138,
      "episne": 5139,
      "Ġsirkamu": 5140,
      "Ġawosma": 5141,
      "Ġkuttar": 5142,
      "Ġbunka": 5143,
      "Ġsasimi": 5144,
      "èĲ½ãģ¡": 5145,
      "ãģĬãģĹãģĦãģķãĤĵ": 5146,
      "zonkai": 5147,
      "pawatap": 5148,
      "epe": 5149,
      "ekira": 5150,
      "ekoykaun": 5151,
      "ecakoko": 5152,
      "esuperanto": 5153,
      "iyayraykere": 5154,
      "oposo": 5155,
      "otcike": 5156,
      "snu": 5157,
      "wniwse": 5158,
      "§ī": 5159,
      "å¥": 5160,
      "å«": 5161,
      "æı": 5162,
      "æļ": 5163,
      "éŁ³": 5164,
      "ĠãģĤ": 5165,
      "İæĹ¥": 5166,
      "kak": 5167,
      "kapar": 5168,
      "waciki": 5169,
      "Ġkakenca": 5170,
      "Ġedo": 5171,
      "Ġehorari": 5172,
      "kisa": 5173,
      "noya": 5174,
      "koomap": 5175,
      "koyantone": 5176,
      "Ġisay": 5177,
      "Ġikuspe": 5178,
      "uyra": 5179,
      "ciko": 5180,
      "citce": 5181,
      "Ġohor": 5182,
      "Ġronno": 5183,
      "Ġtake": 5184,
      "mae": 5185,
      "Ġyama": 5186,
      "Ġsitc": 5187,
      "Ġsimakmaki": 5188,
      "Ġukattuymano": 5189,
      "Ġhawai": 5190,
      "sayo": 5191,
      "Ġkikar": 5192,
      "Ġpatce": 5193,
      "ãĤª": 5194,
      "Ġtusir": 5195,
      "Ġherepasi": 5196,
      "yayo": 5197,
      "Ġsara": 5198,
      "arorkisne": 5199,
      "Ġhotuye": 5200,
      "Ġtopse": 5201,
      "asanke": 5202,
      "Ġcd": 5203,
      "Ġchu": 5204,
      "ramusitne": 5205,
      "Ġnunuke": 5206,
      "kurkot": 5207,
      "manpe": 5208,
      "Ġorospe": 5209,
      "Ġsiro": 5210,
      "Ġsum": 5211,
      "Ġpayepa": 5212,
      "ãģ®ãģŁ": 5213,
      "Ġporosirunkamuy": 5214,
      "Ġitaksani": 5215,
      "Ġyaytupare": 5216,
      "Ġmakiri": 5217,
      "Ġtesu": 5218,
      "osoro": 5219,
      "ãģªãģĤ": 5220,
      "Ġkarus": 5221,
      "ãĤĴåĩº": 5222,
      "santekehe": 5223,
      "ãģ¨ç§ģãģ¯": 5224,
      "tomari": 5225,
      "ukokusis": 5226,
      "ukotuwaskarap": 5227,
      "ç§ģãģ®ç": 5228,
      "ãģĵãĤĮãģ¯": 5229,
      "Ġcuppok": 5230,
      "Ġukokusis": 5231,
      "monpok": 5232,
      "Ġrapokkehe": 5233,
      "ãĤĬãģªãģķãģĦ": 5234,
      "mpayki": 5235,
      "anuya": 5236,
      "koray": 5237,
      "Ġramuan": 5238,
      "osmake": 5239,
      "esisoun": 5240,
      "Ġasinkaro": 5241,
      "esirkooterke": 5242,
      "Ġetokne": 5243,
      "iyoype": 5244,
      "Ġeramuskari": 5245,
      "Ġyayeyukar": 5246,
      "tuypatuypa": 5247,
      "mset": 5248,
      "äººåĲį": 5249,
      "Ġrorun": 5250,
      "horkew": 5251,
      "Ġoypepi": 5252,
      "sakekar": 5253,
      "ãģĽãģ¦": 5254,
      "puspa": 5255,
      "Ġkimunto": 5256,
      "Ġkimunkamuy": 5257,
      "æĢĴ": 5258,
      "ãĤĪãģĨãģŁ": 5259,
      "irwa": 5260,
      "mosmoso": 5261,
      "Ġtomnukar": 5262,
      "betsu": 5263,
      "henkotpa": 5264,
      "åħ¥ãģ£ãģ¦": 5265,
      "Ġtokyo": 5266,
      "ãģ«ãģªãģ£ãģ¦": 5267,
      "canan": 5268,
      "ä¸Ģäºº": 5269,
      "horippa": 5270,
      "Ġkikkik": 5271,
      "Ġsermaka": 5272,
      "Ġeokok": 5273,
      "Ġhousyanou": 5274,
      "Ġtonkori": 5275,
      "imekkore": 5276,
      "åĽŀ": 5277,
      "Ġkamiasi": 5278,
      "ineapkusta": 5279,
      "Ġhepeku": 5280,
      "åħĥæ°Ĺãģ¦": 5281,
      "èĭ¥": 5282,
      "newaan": 5283,
      "monipirka": 5284,
      "48": 5285,
      "erup": 5286,
      "ekanna": 5287,
      "ehoyupu": 5288,
      "icen": 5289,
      "jo": 5290,
      "mani": 5291,
      "oa": 5292,
      "opici": 5293,
      "pka": 5294,
      "wosma": 5295,
      "æ¨": 5296,
      "æĦ": 5297,
      "çĮ": 5298,
      "çļ®": 5299,
      "è¾": 5300,
      "ĠãĤĤ": 5301,
      "kararak": 5302,
      "ormonkesna": 5303,
      "Ġaku": 5304,
      "Ġaca": 5305,
      "siram": 5306,
      "kepke": 5307,
      "Ġeho": 5308,
      "Ġemina": 5309,
      "Ġezo": 5310,
      "Ġeyaykosiramsuypa": 5311,
      "Ġesaman": 5312,
      "kotak": 5313,
      "koppa": 5314,
      "kotuye": 5315,
      "kokte": 5316,
      "koarikiki": 5317,
      "kotam": 5318,
      "kosinewpa": 5319,
      "Ġikemnu": 5320,
      "Ġinonnoytak": 5321,
      "uyu": 5322,
      "rawne": 5323,
      "cipo": 5324,
      "Ġotaru": 5325,
      "Ġryo": 5326,
      "rin": 5327,
      "toon": 5328,
      "tumasnu": 5329,
      "Ġsit": 5330,
      "pene": 5331,
      "Ġuray": 5332,
      "Ġusinna": 5333,
      "akne": 5334,
      "Ġharki": 5335,
      "nita": 5336,
      "nisomap": 5337,
      "Ġpasokon": 5338,
      "Ġcisa": 5339,
      "tantane": 5340,
      "Ġsokar": 5341,
      "hokuste": 5342,
      "Ġkuri": 5343,
      "wennukare": 5344,
      "Ġkoturimimse": 5345,
      "hayokpe": 5346,
      "hei": 5347,
      "herikasi": 5348,
      "Ġtukka": 5349,
      "arino": 5350,
      "Ġsaha": 5351,
      "arsoke": 5352,
      "Ġhotuypa": 5353,
      "Ġpirkapi": 5354,
      "ãĢĶ": 5355,
      "hura": 5356,
      "matkor": 5357,
      "menokopo": 5358,
      "Ġrespa": 5359,
      "koysanpa": 5360,
      "Ġsirko": 5361,
      "Ġsirokane": 5362,
      "Ġsuto": 5363,
      "pirkaresu": 5364,
      "Ġnumi": 5365,
      "tokuyne": 5366,
      "Ġokaypa": 5367,
      "kayni": 5368,
      "ãģ£ãģ¡": 5369,
      "ãģªãģĭãĤī": 5370,
      "ãģ¯ãĤī": 5371,
      "ãģ¯ãģĤ": 5372,
      "ãĤĴãģ¤": 5373,
      "ãĤĴé£²": 5374,
      "porose": 5375,
      "itakte": 5376,
      "ukopekapeka": 5377,
      "koykikar": 5378,
      "ç§ģãģŁãģ¡": 5379,
      "Ġkonkane": 5380,
      "ãĥ»": 5381,
      "ãĥĥ": 5382,
      "ãģıãĤĬ": 5383,
      "Ġonuytasa": 5384,
      "kacika": 5385,
      "petne": 5386,
      "petoranne": 5387,
      "maciya": 5388,
      "punkiyo": 5389,
      "Ġukopayoka": 5390,
      "sarpa": 5391,
      "uspenuye": 5392,
      "Ġhopunire": 5393,
      "inunpe": 5394,
      "ãģįãģ¦": 5395,
      "Ġkotomno": 5396,
      "sapporo": 5397,
      "Ġinawneni": 5398,
      "Ġ12": 5399,
      "esiki": 5400,
      "esisuye": 5401,
      "okunure": 5402,
      "Ġterkeype": 5403,
      "Ġmoynak": 5404,
      "Ġatusa": 5405,
      "äººãģĭ": 5406,
      "anakne": 5407,
      "ekasihi": 5408,
      "ãģĦãģ¦ãģĦãĤĭ": 5409,
      "Ġeramasu": 5410,
      "Ġeyayram": 5411,
      "sirepakasnu": 5412,
      "é£Łãģ¸ãģ¦": 5413,
      "cakke": 5414,
      "Ġinunpe": 5415,
      "Ġkaspaotte": 5416,
      "Ġsenkaki": 5417,
      "genpa": 5418,
      "Ġinehempak": 5419,
      "honisik": 5420,
      "æĢ§": 5421,
      "ãģ²ãģ¨": 5422,
      "kusima": 5423,
      "åĲĮ": 5424,
      "karkuhu": 5425,
      "Ġcahaw": 5426,
      "Ġhokuhu": 5427,
      "Ġuype": 5428,
      "koitakmuye": 5429,
      "Ġpiratur": 5430,
      "ãģıãģªãĤĭ": 5431,
      "ãģıãģªãģ£ãģŁ": 5432,
      "Ġdaka": 5433,
      "hokkaidou": 5434,
      "Ġkenri": 5435,
      "kosukupmat": 5436,
      "tempatempa": 5437,
      "pittano": 5438,
      "Ġutumasi": 5439,
      "anakkikorka": 5440,
      "ãĥĨãĥ¼ãĥķ": 5441,
      "ãģĬçĪ¶ãģķãĤĵ": 5442,
      "pakkay": 5443,
      "enuyekar": 5444,
      "kapuspare": 5445,
      "44": 5446,
      "69": 5447,
      "74": 5448,
      "ban": 5449,
      "cor": 5450,
      "ekotanne": 5451,
      "gakus": 5452,
      "iru": 5453,
      "iramu": 5454,
      "ikkew": 5455,
      "opes": 5456,
      "owse": 5457,
      "otaru": 5458,
      "okuta": 5459,
      "puye": 5460,
      "ws": 5461,
      "yse": 5462,
      "±³": 5463,
      "æł": 5464,
      "çª": 5465,
      "é¡Ķ": 5466,
      "é¹¿": 5467,
      "Ġãģ¨": 5468,
      "anup": 5469,
      "katun": 5470,
      "sira": 5471,
      "simakmaki": 5472,
      "uso": 5473,
      "uste": 5474,
      "Ġkapu": 5475,
      "Ġkatca": 5476,
      "Ġerok": 5477,
      "ãģģ": 5478,
      "yaci": 5479,
      "koya": 5480,
      "kotu": 5481,
      "koye": 5482,
      "komo": 5483,
      "kopirka": 5484,
      "koarki": 5485,
      "koapkas": 5486,
      "koekimne": 5487,
      "kokewtumkor": 5488,
      "kousaraye": 5489,
      "Ġimak": 5490,
      "Ġinonnoitak": 5491,
      "Ġiruyke": 5492,
      "uyep": 5493,
      "rasi": 5494,
      "cipe": 5495,
      "cikasnukar": 5496,
      "ciesonere": 5497,
      "Ġtai": 5498,
      "riya": 5499,
      "risam": 5500,
      "napi": 5501,
      "maspa": 5502,
      "tot": 5503,
      "toyki": 5504,
      "tetsu": 5505,
      "Ġsipe": 5506,
      "Ġsipirasa": 5507,
      "peto": 5508,
      "nise": 5509,
      "nisu": 5510,
      "Ġkiror": 5511,
      "Ġciyehe": 5512,
      "pitara": 5513,
      "mipihi": 5514,
      "homa": 5515,
      "tekpake": 5516,
      "tekkonoye": 5517,
      "wenpuri": 5518,
      "wenpoutari": 5519,
      "Ġkoonno": 5520,
      "Ġkodo": 5521,
      "ham": 5522,
      "Ġnitek": 5523,
      "sukus": 5524,
      "Ġpir": 5525,
      "Ġpinu": 5526,
      "Ġpitar": 5527,
      "meske": 5528,
      "hetuk": 5529,
      "okakehe": 5530,
      "yayke": 5531,
      "yaykore": 5532,
      "yaykire": 5533,
      "Ġenepo": 5534,
      "sokorkamuy": 5535,
      "ãĢķ": 5536,
      "kushiro": 5537,
      "Ġnuyna": 5538,
      "Ġaynuutar": 5539,
      "ãģĦãĤĪ": 5540,
      "ãģŁãģĭãĤī": 5541,
      "usat": 5542,
      "ãģĭãģĻ": 5543,
      "Ġmokonnu": 5544,
      "muya": 5545,
      "Ġsirwen": 5546,
      "catcari": 5547,
      "ãģ®ãĤĤ": 5548,
      "ãģ®ä¸Ń": 5549,
      "Ġokkasike": 5550,
      "Ġitakpa": 5551,
      "Ġyaysitoma": 5552,
      "kotankor": 5553,
      "ãģ£ãģıãĤĬ": 5554,
      "Ġeciw": 5555,
      "pakki": 5556,
      "Ġten": 5557,
      "aciki": 5558,
      "Ġsinenne": 5559,
      "yaykosanke": 5560,
      "yaykotuwaskarap": 5561,
      "porosirunkamuy": 5562,
      "eramew": 5563,
      "sinnay": 5564,
      "Ġsanca": 5565,
      "ukosina": 5566,
      "ukosapte": 5567,
      "ttesusu": 5568,
      "mampa": 5569,
      "apekes": 5570,
      "ãĥŁ": 5571,
      "ciste": 5572,
      "Ġapeari": 5573,
      "Ġaspe": 5574,
      "kiruyma": 5575,
      "Ġcepkorkamuy": 5576,
      "eynonnoytak": 5577,
      "saranip": 5578,
      "turituri": 5579,
      "eramasuy": 5580,
      "Ġtoysirkur": 5581,
      "Ġyukkorkamuy": 5582,
      "ãģĬèħ¹": 5583,
      "omante": 5584,
      "sapanekur": 5585,
      "ruyka": 5586,
      "inumpe": 5587,
      "tcuyep": 5588,
      "mnukuri": 5589,
      "ãģªãģĦãĤĪ": 5590,
      "sampekor": 5591,
      "esirkik": 5592,
      "iyokunnure": 5593,
      "Ġyayetokoyki": 5594,
      "Ġatpa": 5595,
      "Ġbo": 5596,
      "atusa": 5597,
      "munciro": 5598,
      "apasam": 5599,
      "Ġorepunpe": 5600,
      "ãģĪãģ¦": 5601,
      "Ġpitoho": 5602,
      "rikunkanto": 5603,
      "ãĤĴæĬ": 5604,
      "ewnara": 5605,
      "Ġsattek": 5606,
      "Ġsensei": 5607,
      "kurkasi": 5608,
      "æĢ¥": 5609,
      "Ġkucacise": 5610,
      "Ġasurkor": 5611,
      "åŃĲãģ¨ãĤĤ": 5612,
      "137": 5613,
      "nankor": 5614,
      "Ġsipinpa": 5615,
      "è©±èĢħ": 5616,
      "ãģĿãģĨãģĦãģĨ": 5617,
      "kawari": 5618,
      "åħ¥ãĤĮãģ¦": 5619,
      "kururu": 5620,
      "æŃ©": 5621,
      "Ġisonkur": 5622,
      "Ġatayehe": 5623,
      "Ġewtanne": 5624,
      "Ġhawkeno": 5625,
      "kopasirota": 5626,
      "Ġnipeskep": 5627,
      "askeuk": 5628,
      "kyoku": 5629,
      "Ġyayoterke": 5630,
      "ouri": 5631,
      "panake": 5632,
      "rankarapte": 5633,
      "nuno": 5634,
      "Ġpiskanike": 5635,
      "Ġotop": 5636,
      "Ġterebi": 5637,
      "éĿ¢": 5638,
      "Ġuwokarpa": 5639,
      "ryoku": 5640,
      "çĹħæ°Ĺ": 5641,
      "koasurani": 5642,
      "wayru": 5643,
      "ãĤĴä½ľãģ£ãģ¦": 5644,
      "Ġringo": 5645,
      "ãģ¡ãĤĩãģ£ãģ¨": 5646,
      "Ġhousyasen": 5647,
      "ãģ¡ãĤĥãĤĵ": 5648,
      "èĸª": 5649,
      "ãģŁãĤģãģ«": 5650,
      "ç¾İåĳ³": 5651,
      "unukaski": 5652,
      "Ġeharkisoun": 5653,
      "indows": 5654,
      "Ġsutobu": 5655,
      "kiruymaskin": 5656,
      "!âĢĿ": 5657,
      "21": 5658,
      "31": 5659,
      "39": 5660,
      "70": 5661,
      "]âĢĿ": 5662,
      "asik": 5663,
      "baku": 5664,
      "coka": 5665,
      "eoma": 5666,
      "emonipirka": 5667,
      "ge": 5668,
      "imo": 5669,
      "imeru": 5670,
      "iisoneka": 5671,
      "irankarapte": 5672,
      "ms": 5673,
      "sto": 5674,
      "utanne": 5675,
      "wtanne": 5676,
      "åĥ": 5677,
      "åĨ": 5678,
      "åĸ": 5679,
      "é³": 5680,
      "é»": 5681,
      "ĭãĤĬ": 5682,
      "annu": 5683,
      "oranke": 5684,
      "Ġamset": 5685,
      "tasi": 5686,
      "tawakane": 5687,
      "Ġhaku": 5688,
      "sitciw": 5689,
      "unay": 5690,
      "Ġkapuhu": 5691,
      "Ġkarapto": 5692,
      "kei": 5693,
      "Ġesan": 5694,
      "Ġeyapkir": 5695,
      "kikan": 5696,
      "not": 5697,
      "ãģ¬": 5698,
      "yamokte": 5699,
      "kotek": 5700,
      "kosomo": 5701,
      "koturi": 5702,
      "koinne": 5703,
      "kopaste": 5704,
      "kosunke": 5705,
      "kocorawki": 5706,
      "kocanupkor": 5707,
      "Ġioyra": 5708,
      "uyo": 5709,
      "rasa": 5710,
      "Ġou": 5711,
      "Ġohay": 5712,
      "riat": 5713,
      "ricihi": 5714,
      "nake": 5715,
      "toshi": 5716,
      "teye": 5717,
      "temu": 5718,
      "rek": 5719,
      "rekte": 5720,
      "Ġsita": 5721,
      "Ġsina": 5722,
      "Ġsirar": 5723,
      "Ġsitaku": 5724,
      "yepi": 5725,
      "Ġurespa": 5726,
      "Ġukoterke": 5727,
      "moyo": 5728,
      "Ġkikin": 5729,
      "Ġparu": 5730,
      "Ġpasuy": 5731,
      "tarunay": 5732,
      "ramkor": 5733,
      "homekar": 5734,
      "anok": 5735,
      "siruwe": 5736,
      "sirkote": 5737,
      "Ġkuta": 5738,
      "Ġkuari": 5739,
      "Ġkoe": 5740,
      "Ġnituypa": 5741,
      "Ġniwniwse": 5742,
      "Ġtur": 5743,
      "Ġherikasi": 5744,
      "yaykewkor": 5745,
      "arikinne": 5746,
      "rum": 5747,
      "Ġenewsar": 5748,
      "rayse": 5749,
      "raykimatek": 5750,
      "konru": 5751,
      "Ġcoypep": 5752,
      "ãģĦãģ¾ãģĻ": 5753,
      "ãģĭãģ«": 5754,
      "Ġmose": 5755,
      "koyyani": 5756,
      "Ġsirosi": 5757,
      "Ġsirpopke": 5758,
      "kanpere": 5759,
      "ãģ®ãģ«": 5760,
      "inean": 5761,
      "Ġworo": 5762,
      "Ġyaynan": 5763,
      "Ġnure": 5764,
      "Ġrai": 5765,
      "tunne": 5766,
      "Ġusayne": 5767,
      "tomunpuyar": 5768,
      "neasin": 5769,
      "ãģ«ãģ¯": 5770,
      "sipita": 5771,
      "ãģĨãĥ¼": 5772,
      "Ġtapanpe": 5773,
      "ç§ģãģ®è": 5774,
      "toykoronno": 5775,
      "ekanok": 5776,
      "Ġapepasuy": 5777,
      "petciw": 5778,
      "kuren": 5779,
      "kotcise": 5780,
      "Ġcupkoni": 5781,
      "Ġsakan": 5782,
      "Ġsakkes": 5783,
      "Ġriya": 5784,
      "sukeokere": 5785,
      "yarpok": 5786,
      "inki": 5787,
      "Ġsikesar": 5788,
      "katkar": 5789,
      "hontom": 5790,
      "Ġkarikari": 5791,
      "Ġirammakaka": 5792,
      "yukkorkamuy": 5793,
      "repuysir": 5794,
      "iyoykir": 5795,
      "koninkar": 5796,
      "ninuy": 5797,
      "Ġga": 5798,
      "rorke": 5799,
      "roruy": 5800,
      "yupkere": 5801,
      "inawcipa": 5802,
      "ayusni": 5803,
      "toykotata": 5804,
      "eukasuy": 5805,
      "ãģĽãģªãģķãģĦ": 5806,
      "Ġmuka": 5807,
      "é£Łãģ¸ãĤĭ": 5808,
      "kokok": 5809,
      "Ġsatporo": 5810,
      "etunankar": 5811,
      "Ġpunpa": 5812,
      "iworso": 5813,
      "kohopi": 5814,
      "Ġshin": 5815,
      "eokok": 5816,
      "Ġsineanto": 5817,
      "porore": 5818,
      "Ġiwamte": 5819,
      "rukesanpa": 5820,
      "kinno": 5821,
      "Ġpenanpe": 5822,
      "tanpaku": 5823,
      "å°ıãģķãģª": 5824,
      "teknata": 5825,
      "å¼µ": 5826,
      "Ġhonihi": 5827,
      "tokapci": 5828,
      "pinupinu": 5829,
      "nisappone": 5830,
      "Ġniptani": 5831,
      "eposokane": 5832,
      "Ġsinusinu": 5833,
      "reyepkamuy": 5834,
      "Ġsirarika": 5835,
      "ãĤ¤ãĥĮ": 5836,
      "Ġsikayekurkot": 5837,
      "reskor": 5838,
      "wkaw": 5839,
      "kosinni": 5840,
      "å¾Į": 5841,
      "usarun": 5842,
      "å¹´ãģ¯": 5843,
      "petetok": 5844,
      "hawkeno": 5845,
      "corpokke": 5846,
      "esampesituri": 5847,
      "masasa": 5848,
      "usaynekata": 5849,
      "çĨĬ": 5850,
      "ãĤ¢ãĤ¤ãĥĮ": 5851,
      "Ġhusse": 5852,
      "nukannukar": 5853,
      "kepkepu": 5854,
      "eramewnin": 5855,
      "41": 5856,
      "53": 5857,
      "56": 5858,
      "59": 5859,
      "63": 5860,
      "64": 5861,
      "72": 5862,
      "75": 5863,
      "_-": 5864,
      "cm": 5865,
      "ee": 5866,
      "ewa": 5867,
      "eus": 5868,
      "eno": 5869,
      "epi": 5870,
      "eok": 5871,
      "eca": 5872,
      "gan": 5873,
      "hus": 5874,
      "hore": 5875,
      "haku": 5876,
      "iyaykipte": 5877,
      "ikoyayyupu": 5878,
      "le": 5879,
      "mnatara": 5880,
      "nni": 5881,
      "okewe": 5882,
      "omommomo": 5883,
      "wsut": 5884,
      "wnin": 5885,
      "yorot": 5886,
      "¤æı": 5887,
      "°æĿĳ": 5888,
      "çĦ": 5889,
      "Ġtte": 5890,
      "oruspe": 5891,
      "orikin": 5892,
      "Ġai": 5893,
      "Ġatu": 5894,
      "Ġhuy": 5895,
      "wakay": 5896,
      "sipase": 5897,
      "ussitu": 5898,
      "unkamuy": 5899,
      "Ġeepa": 5900,
      "Ġeraykotne": 5901,
      "Ġeniste": 5902,
      "Ġekesinne": 5903,
      "Ġekoypokun": 5904,
      "yapa": 5905,
      "kohu": 5906,
      "kouk": 5907,
      "kociwe": 5908,
      "patki": 5909,
      "wepekennu": 5910,
      "Ġiw": 5911,
      "Ġike": 5912,
      "Ġira": 5913,
      "Ġiporo": 5914,
      "Ġipokas": 5915,
      "cikupeni": 5916,
      "Ġsore": 5917,
      "Ġtar": 5918,
      "Ġkoray": 5919,
      "tukan": 5920,
      "Ġsio": 5921,
      "Ġsite": 5922,
      "Ġsiwen": 5923,
      "posiresikte": 5924,
      "Ġuw": 5925,
      "Ġutomciwre": 5926,
      "akutari": 5927,
      "Ġhamu": 5928,
      "sauspe": 5929,
      "saraha": 5930,
      "sawot": 5931,
      "nima": 5932,
      "Ġokakehe": 5933,
      "Ġpapis": 5934,
      "Ġparkes": 5935,
      "kuani": 5936,
      "ãĤ¨": 5937,
      "hou": 5938,
      "Ġkamuycep": 5939,
      "wenkoykikar": 5940,
      "Ġkooripak": 5941,
      "Ġkopasrota": 5942,
      "Ġkoturse": 5943,
      "Ġkopoyke": 5944,
      "Ġkosmat": 5945,
      "Ġnisew": 5946,
      "sune": 5947,
      "samani": 5948,
      "Ġhepoki": 5949,
      "Ġhenoye": 5950,
      "Ġhemka": 5951,
      "Ġanakn": 5952,
      "takko": 5953,
      "yayramu": 5954,
      "yaysamne": 5955,
      "yaywennukare": 5956,
      "rutu": 5957,
      "Ġsakir": 5958,
      "soma": 5959,
      "Ġcor": 5960,
      "Ġikinne": 5961,
      "anire": 5962,
      "Ġhurka": 5963,
      "punkar": 5964,
      "manpa": 5965,
      "Ġyuki": 5966,
      "Ġyupu": 5967,
      "ãģĭãģĤ": 5968,
      "ãģĭãģĤãĤĭ": 5969,
      "ttarara": 5970,
      "tapke": 5971,
      "okani": 5972,
      "kana": 5973,
      "Ġyayramekotpa": 5974,
      "Ġnurappa": 5975,
      "Ġmawe": 5976,
      "Ġmasa": 5977,
      "Ġciskar": 5978,
      "Ġtera": 5979,
      "Ġramaci": 5980,
      "kasiun": 5981,
      "Ġmise": 5982,
      "ãģĹãģı": 5983,
      "ãģĹãĤĥ": 5984,
      "sinnurappa": 5985,
      "ukoante": 5986,
      "ukoposak": 5987,
      "ukoomanne": 5988,
      "Ġonautari": 5989,
      "ãģıãĤī": 5990,
      "ãĤĤãģĹ": 5991,
      "Ġapeoy": 5992,
      "Ġastoma": 5993,
      "kiror": 5994,
      "somoneypeka": 5995,
      "Ġcipor": 5996,
      "ukte": 5997,
      "wanpare": 5998,
      "sakka": 5999,
      "Ġkesorap": 6000,
      "Ġritur": 6001,
      "sonnoka": 6002,
      "Ġeasirki": 6003,
      "pisno": 6004,
      "ä¸į": 6005,
      "ãģĿãģ¯": 6006,
      "kewre": 6007,
      "äº¤æı": 6008,
      "Ġhumse": 6009,
      "eyaye": 6010,
      "iyoski": 6011,
      "Ġerampokiwen": 6012,
      "Ġeyyok": 6013,
      "jidai": 6014,
      "Ġgui": 6015,
      "yayey": 6016,
      "yupyupkere": 6017,
      "apapa": 6018,
      "Ġoyna": 6019,
      "ronnop": 6020,
      "è¡Įãģ£ãģŁ": 6021,
      "eumomare": 6022,
      "Ġeramaspa": 6023,
      "Ġmuk": 6024,
      "irammakaka": 6025,
      "Ġohayne": 6026,
      "ãĤĴæİ": 6027,
      "cuppok": 6028,
      "penkurabu": 6029,
      "enitan": 6030,
      "Ġkucakor": 6031,
      "Ġkucakotcise": 6032,
      "çĶ£": 6033,
      "çĶ°æĿĳ": 6034,
      "ãĤĦãģ£ãģ¦": 6035,
      "kouwerayrinne": 6036,
      "åŃĲä¾Ľ": 6037,
      "futo": 6038,
      "ãĤĮãģ¦ãģĦãĤĭ": 6039,
      "ãĤĤãģ®ãĤĴ": 6040,
      "éģħ": 6041,
      "Ġepisun": 6042,
      "yantonere": 6043,
      "yantoetun": 6044,
      "Ġsupuyaatte": 6045,
      "èģŀãģĦãģ¦": 6046,
      "ä¸Ĭãģ«": 6047,
      "Ġpananpe": 6048,
      "repunkur": 6049,
      "Ġturiri": 6050,
      "Ġdaigaku": 6051,
      "Ġhokampa": 6052,
      "yaykoruyruye": 6053,
      "éĸī": 6054,
      "è²§": 6055,
      "racitkeka": 6056,
      "umma": 6057,
      "ãĤ«ãĥł": 6058,
      "serkehe": 6059,
      "ãģĵãģ®ãĤĪãģĨãģ«": 6060,
      "humseeciw": 6061,
      "namusa": 6062,
      "Ġdoi": 6063,
      "tusuk": 6064,
      "çµĤ": 6065,
      "èµ°": 6066,
      "èµ·": 6067,
      "yaymonikor": 6068,
      "Ġkapacir": 6069,
      "kamuykohepokikamuykoyayrayke": 6070,
      "asuruhu": 6071,
      "yairaykere": 6072,
      "nippoho": 6073,
      "åĴ³": 6074,
      "yaykurkata": 6075,
      "èī¯ãģĦ": 6076,
      "çĻ½": 6077,
      "çľł": 6078,
      "Ġkawarine": 6079,
      "Ġyaymonikor": 6080,
      "å¡©": 6081,
      "Ġsipitatpa": 6082,
      "ãģĭãĤıãģĦ": 6083,
      "Ġtyugoku": 6084,
      "å«Į": 6085,
      "kaparpe": 6086,
      "ç¾İåĳ³ãģĹãģĦ": 6087,
      "åĥį": 6088,
      "kokokse": 6089,
      "äº¤æıĽ": 6090,
      "Ġguitar": 6091,
      "28": 6092,
      "33": 6093,
      "35": 6094,
      "45": 6095,
      "55": 6096,
      "58": 6097,
      "61": 6098,
      "73": 6099,
      "79": 6100,
      "atce": 6101,
      "coypep": 6102,
      "ez": 6103,
      "ekan": 6104,
      "ekeske": 6105,
      "ikaopiwki": 6106,
      "iruyke": 6107,
      "kku": 6108,
      "mkinno": 6109,
      "nna": 6110,
      "osir": 6111,
      "opas": 6112,
      "urar": 6113,
      "usinna": 6114,
      "utasare": 6115,
      "ãĩ": 6116,
      "æ´": 6117,
      "ç±³": 6118,
      "èĳī": 6119,
      "é«": 6120,
      "éľ": 6121,
      "Ġ)": 6122,
      "Ġ?": 6123,
      "Ġãģ®": 6124,
      "ĠãģĿãģ®": 6125,
      "ħãģĨ": 6126,
      "annoski": 6127,
      "neko": 6128,
      "orkehe": 6129,
      "taspa": 6130,
      "Ġnennen": 6131,
      "Ġana": 6132,
      "unte": 6133,
      "uncise": 6134,
      "unrup": 6135,
      "Ġkame": 6136,
      "Ġeya": 6137,
      "Ġepe": 6138,
      "Ġeoripak": 6139,
      "Ġesara": 6140,
      "Ġesuperanto": 6141,
      "kimo": 6142,
      "koporo": 6143,
      "kosan": 6144,
      "koen": 6145,
      "koyaye": 6146,
      "konere": 6147,
      "kouepekennu": 6148,
      "Ġisi": 6149,
      "Ġikka": 6150,
      "Ġiomare": 6151,
      "Ġikaopas": 6152,
      "Ġikkewe": 6153,
      "ramaci": 6154,
      "cisoyekatta": 6155,
      "Ġsyu": 6156,
      "Ġoni": 6157,
      "Ġopaye": 6158,
      "Ġronnu": 6159,
      "Ġtais": 6160,
      "Ġtakusa": 6161,
      "maru": 6162,
      "tetne": 6163,
      "tettek": 6164,
      "tumu": 6165,
      "remesu": 6166,
      "Ġsika": 6167,
      "Ġsiso": 6168,
      "Ġsimusiska": 6169,
      "muyup": 6170,
      "set": 6171,
      "Ġupa": 6172,
      "sami": 6173,
      "Ġkironnu": 6174,
      "Ġciwre": 6175,
      "kum": 6176,
      "kumo": 6177,
      "ãĤµ": 6178,
      "ãĤħãģĨ": 6179,
      "ramno": 6180,
      "sirkooterke": 6181,
      "Ġkoitak": 6182,
      "Ġkomaw": 6183,
      "Ġnokunneywano": 6184,
      "Ġninpa": 6185,
      "samormosir": 6186,
      "mem": 6187,
      "mewnatara": 6188,
      "oroytak": 6189,
      "oroyaciki": 6190,
      "Ġturen": 6191,
      "Ġhere": 6192,
      "Ġhekirpa": 6193,
      "yayan": 6194,
      "yaytupare": 6195,
      "Ġsesiumu": 6196,
      "Ġsaru": 6197,
      "aroka": 6198,
      "Ġtoho": 6199,
      "Ġaro": 6200,
      "puta": 6201,
      "puro": 6202,
      "purse": 6203,
      "ãģĦãģ«": 6204,
      "Ġrepo": 6205,
      "ãģŁãĤī": 6206,
      "Ġciseni": 6207,
      "kuro": 6208,
      "ãģĭãĤĭ": 6209,
      "Ġmoji": 6210,
      "Ġ...âĢĿ": 6211,
      "Ġsiruye": 6212,
      "ãģ®ä¸ĭ": 6213,
      "ãģ®ãĤĴç§ģãģ¯": 6214,
      "ãģ®ãģ¨ãģĵãĤį": 6215,
      "Ġwor": 6216,
      "Ġwaniw": 6217,
      "Ġyayirayke": 6218,
      "Ġnupa": 6219,
      "Ġnuman": 6220,
      "kaysikkama": 6221,
      "ppakar": 6222,
      "karikari": 6223,
      "Ġipeokere": 6224,
      "Ġmipihi": 6225,
      "einkar": 6226,
      "sanasanke": 6227,
      "ponmat": 6228,
      "ponpoho": 6229,
      "unukar": 6230,
      "enka": 6231,
      "kamihi": 6232,
      "apeari": 6233,
      "ãģķãĤĮãģŁ": 6234,
      "toypakasnu": 6235,
      "nonci": 6236,
      "ãĥ¢": 6237,
      "ãĤĤãĤĵãģŁ": 6238,
      "ãĤīãģĹãģĦ": 6239,
      "Ġrampak": 6240,
      "Ġukoparaparak": 6241,
      "sakmantaci": 6242,
      "Ġrimimse": 6243,
      "daya": 6244,
      "Ġtuntun": 6245,
      "ãĤĬãģĭ": 6246,
      "Ġsikerura": 6247,
      "ä¸ī": 6248,
      "Ġkewtumuwen": 6249,
      "koramnukuri": 6250,
      "siwnin": 6251,
      "samaynu": 6252,
      "kamore": 6253,
      "turutu": 6254,
      "siwtoho": 6255,
      "Ġgaku": 6256,
      "Ġgeki": 6257,
      "mintari": 6258,
      "tekekar": 6259,
      "weysaha": 6260,
      "Ġsamayunkur": 6261,
      "sensei": 6262,
      "ĠãģŁãģª": 6263,
      "æľĪ": 6264,
      "kuttom": 6265,
      "epakari": 6266,
      "tatatata": 6267,
      "eranrari": 6268,
      "taikai": 6269,
      "pirkan": 6270,
      "puspet": 6271,
      "ãĤĴæĮģ": 6272,
      "penramu": 6273,
      "è¦ļ": 6274,
      "Ġsenju": 6275,
      "honiporo": 6276,
      "ãģĤãģ®äººãģ¯": 6277,
      "sermakkor": 6278,
      "ãģ²ãģ£ãģıãĤĬ": 6279,
      "irusu": 6280,
      "ironne": 6281,
      "caricari": 6282,
      "ãģŁãģ¡ãģĭ": 6283,
      "giin": 6284,
      "eomuken": 6285,
      "unukeas": 6286,
      "Ġepisne": 6287,
      "åħ¥ãĤĮ": 6288,
      "sonkokote": 6289,
      "æ³£": 6290,
      "Ġkuwari": 6291,
      "Ġpirasa": 6292,
      "nupeatte": 6293,
      "Ġetaspe": 6294,
      "ç¥ĸ": 6295,
      "Ġeepakki": 6296,
      "ĿĢçī©": 6297,
      "ãģĳãĤĮãģ¨ãĤĤ": 6298,
      "episun": 6299,
      "nispane": 6300,
      "kesehe": 6301,
      "ä¹ı": 6302,
      "Ġyayattasa": 6303,
      "tumamaha": 6304,
      "arowaciki": 6305,
      "sirkopeker": 6306,
      "sermakuste": 6307,
      "xxxxxxxx": 6308,
      "èī²": 6309,
      "kotaci": 6310,
      "Ġehotkey": 6311,
      "kosoturasi": 6312,
      "èª°ãģĭ": 6313,
      "Ġtukarike": 6314,
      "uoyaykinne": 6315,
      "åĢŁ": 6316,
      "iyorot": 6317,
      "Ġsittokes": 6318,
      "nisattanean": 6319,
      "éłŃ": 6320,
      "esiknak": 6321,
      "ãģĤãģ®å¥³": 6322,
      "oynakamuy": 6323,
      "çķĳ": 6324,
      "ä¸Ģç·Ĵãģ«": 6325,
      "Ġcisatcuyep": 6326,
      "toykikkar": 6327,
      "Ġkikinni": 6328,
      "kosinninup": 6329,
      "è²§ä¹ı": 6330,
      "ezeru": 6331,
      "29": 6332,
      "32": 6333,
      "38": 6334,
      "49": 6335,
      "51": 6336,
      "54": 6337,
      "62": 6338,
      "ate": 6339,
      "eusi": 6340,
      "ekutkor": 6341,
      "esipinpa": 6342,
      "iomare": 6343,
      "iran": 6344,
      "ishi": 6345,
      "ikaopas": 6346,
      "ikkewe": 6347,
      "kyuu": 6348,
      "mpuy": 6349,
      "nanke": 6350,
      "otki": 6351,
      "oupsoromare": 6352,
      "owayne": 6353,
      "usin": 6354,
      "ukao": 6355,
      "ukoresu": 6356,
      "zan": 6357,
      "©ļ": 6358,
      "è±": 6359,
      "é¤": 6360,
      "éķ": 6361,
      "Ġ0": 6362,
      "Ġãģ¯": 6363,
      "Ġuska": 6364,
      "ĵåŃĲ": 6365,
      "karar": 6366,
      "tame": 6367,
      "Ġpuy": 6368,
      "Ġpuni": 6369,
      "Ġnetopake": 6370,
      "sisak": 6371,
      "sikaye": 6372,
      "simaketa": 6373,
      "simusiska": 6374,
      "Ġante": 6375,
      "usya": 6376,
      "Ġkasma": 6377,
      "Ġkais": 6378,
      "Ġewa": 6379,
      "Ġeca": 6380,
      "Ġeuko": 6381,
      "Ġetor": 6382,
      "Ġekayni": 6383,
      "Ġearikinne": 6384,
      "kike": 6385,
      "nokoru": 6386,
      "yatus": 6387,
      "kose": 6388,
      "koha": 6389,
      "kotukka": 6390,
      "koorsutke": 6391,
      "korpe": 6392,
      "koranke": 6393,
      "Ġie": 6394,
      "Ġino": 6395,
      "Ġiye": 6396,
      "Ġitto": 6397,
      "Ġitunna": 6398,
      "Ġirawketupa": 6399,
      "rapoki": 6400,
      "rayayayse": 6401,
      "cimasnu": 6402,
      "Ġotuye": 6403,
      "Ġopes": 6404,
      "Ġopus": 6405,
      "Ġowse": 6406,
      "Ġotekna": 6407,
      "Ġomuken": 6408,
      "Ġrus": 6409,
      "rise": 6410,
      "Ġkora": 6411,
      "naka": 6412,
      "natki": 6413,
      "maskin": 6414,
      "topi": 6415,
      "Ġyapte": 6416,
      "tuttu": 6417,
      "tutanu": 6418,
      "tumkor": 6419,
      "repunkine": 6420,
      "Ġsicar": 6421,
      "ses": 6422,
      "Ġutomnukar": 6423,
      "Ġuwomare": 6424,
      "saye": 6425,
      "niwen": 6426,
      "ninne": 6427,
      "Ġpaspa": 6428,
      "miwen": 6429,
      "rampewtek": 6430,
      "hoketu": 6431,
      "Ġkamuyyukar": 6432,
      "kamuymosir": 6433,
      "kamuycep": 6434,
      "wenmatnepo": 6435,
      "unitara": 6436,
      "unikodo": 6437,
      "Ġkoinne": 6438,
      "Ġkopakke": 6439,
      "Ġkotukka": 6440,
      "Ġkompu": 6441,
      "Ġkokuren": 6442,
      "yusi": 6443,
      "suwat": 6444,
      "Ġpiru": 6445,
      "henoye": 6446,
      "Ġheca": 6447,
      "takkane": 6448,
      "yayresu": 6449,
      "Ġkuste": 6450,
      "Ġsawot": 6451,
      "arwen": 6452,
      "aroyaciki": 6453,
      "Ġtoon": 6454,
      "ãĢħ": 6455,
      "nokokkusu": 6456,
      "hur": 6457,
      "humas": 6458,
      "matne": 6459,
      "ãģĦãģªãģķãģĦ": 6460,
      "Ġwenkewtumkor": 6461,
      "ãģŁãģĳ": 6462,
      "ãģŁãģ£ãģŁ": 6463,
      "Ġkotankor": 6464,
      "Ġoroneanpe": 6465,
      "koysampa": 6466,
      "Ġsirmaknatara": 6467,
      "tapteunno": 6468,
      "kankari": 6469,
      "ãģ®ãģĵãģ¨": 6470,
      "Ġwose": 6471,
      "Ġyaykirare": 6472,
      "Ġyayramuan": 6473,
      "Ġyaykeste": 6474,
      "epuni": 6475,
      "Ġnumat": 6476,
      "Ġnukosne": 6477,
      "tokuy": 6478,
      "Ġmakan": 6479,
      "Ġeatto": 6480,
      "ãģ£ãģĳ": 6481,
      "ãĢģãĢĮ": 6482,
      "ãģªãĤĵãģŁ": 6483,
      "ãģªãģıãģ¦": 6484,
      "ãĤĴãģĹãģŁ": 6485,
      "Ġusapki": 6486,
      "sankan": 6487,
      "erampeka": 6488,
      "eramuskari": 6489,
      "ï¼ı": 6490,
      "ipeokere": 6491,
      "ponci": 6492,
      "ponpe": 6493,
      "ukoonkami": 6494,
      "ukokarkari": 6495,
      "Ġcikir": 6496,
      "enkasike": 6497,
      "Ġkondo": 6498,
      "ãģ£ãģ¦ãĤĤ": 6499,
      "ãĥ¯": 6500,
      "cisko": 6501,
      "ãģıãĤĮ": 6502,
      "Ġmosirpasari": 6503,
      "ãģĤãģĤ": 6504,
      "Ġcipanup": 6505,
      "Ġukosinewpa": 6506,
      "Ġhetapne": 6507,
      "ttomo": 6508,
      "sonnokaun": 6509,
      "Ġinneno": 6510,
      "oytak": 6511,
      "Ġtunnay": 6512,
      "burai": 6513,
      "Ġtusu": 6514,
      "korampe": 6515,
      "omapresu": 6516,
      "Ġ100": 6517,
      "onnuppa": 6518,
      "onnuonnu": 6519,
      "esirparu": 6520,
      "ottena": 6521,
      "Ġyayeyam": 6522,
      "Ġosoro": 6523,
      "wokuta": 6524,
      "tomosma": 6525,
      "Ġben": 6526,
      "Ġbira": 6527,
      "haypa": 6528,
      "Ġoykesne": 6529,
      "å¤ľ": 6530,
      "sengen": 6531,
      "tusnatki": 6532,
      "ayta": 6533,
      "toykokisma": 6534,
      "ä½ķãĤĤ": 6535,
      "ä½ķãģ¦ãĤĤ": 6536,
      "rikipuni": 6537,
      "mawkor": 6538,
      "çīĩ": 6539,
      "Ġtaktak": 6540,
      "humihi": 6541,
      "ä»Ĭå¹´ãģ¯": 6542,
      "Ġikoonno": 6543,
      "Ġsumawe": 6544,
      "kohokuste": 6545,
      "orotpe": 6546,
      "æīĢ": 6547,
      "betto": 6548,
      "henkoppa": 6549,
      "tomteresu": 6550,
      "iwakte": 6551,
      "Ġpoyson": 6552,
      "ãģĤãģªãģŁãģ¯": 6553,
      "makiri": 6554,
      "picitce": 6555,
      "éĽ¨ãģĭ": 6556,
      "æ±ļ": 6557,
      "yaunmat": 6558,
      "koehanke": 6559,
      "Ġeomuken": 6560,
      "ãĤ·ãĥ£": 6561,
      "è²ł": 6562,
      "Ġiskari": 6563,
      "Ġhattar": 6564,
      "Ġkewehe": 6565,
      "Ġokpare": 6566,
      "Ġohawkop": 6567,
      "Ġuokarpa": 6568,
      "Ġcaroho": 6569,
      "Ġtaskor": 6570,
      "Ġkohepoki": 6571,
      "Ġinari": 6572,
      "ramatkore": 6573,
      "æµ·": 6574,
      "tasnu": 6575,
      "kapacir": 6576,
      "Ġkokow": 6577,
      "çĶŁãģĪãĤĭ": 6578,
      "Ġyaunmosir": 6579,
      "Ġsenzyuu": 6580,
      "riterite": 6581,
      "ãģĬãģĦãģĹãģĦ": 6582,
      "sitturaynu": 6583,
      "siretokkor": 6584,
      "ehorkakep": 6585,
      "ãģĤãģ®çĬ¬": 6586,
      "cisiske": 6587,
      "èıĵåŃĲ": 6588,
      "é¢¨": 6589,
      "Ġoararisam": 6590,
      "kinasutkamuy": 6591,
      "å¤ĸãģ«åĩº": 6592,
      "åĻ¨": 6593,
      "Ġisayka": 6594,
      "ãĥĨãĥ¼ãĥķäº¤æıĽ": 6595,
      "asikne": 6596,
      "msv": 6597,
      "takkaneko": 6598,
      "Ġbiratori": 6599,
      "34": 6600,
      "36": 6601,
      "37": 6602,
      "43": 6603,
      "46": 6604,
      "47": 6605,
      "52": 6606,
      "65": 6607,
      "67": 6608,
      "71": 6609,
      "82": 6610,
      "83": 6611,
      "84": 6612,
      "89": 6613,
      "asura": 6614,
      "di": 6615,
      "demo": 6616,
      "eyukar": 6617,
      "emusu": 6618,
      "guta": 6619,
      "ikur": 6620,
      "ikayop": 6621,
      "nyuu": 6622,
      "oko": 6623,
      "oppa": 6624,
      "okimne": 6625,
      "ppu": 6626,
      "syuu": 6627,
      "utapke": 6628,
      "wcinne": 6629,
      "«ãģĭ": 6630,
      "®ĭãĤĬ": 6631,
      "¿Ģ": 6632,
      "åł": 6633,
      "æ¶": 6634,
      "ç¶": 6635,
      "Ġãģĭ": 6636,
      "Ġmuye": 6637,
      "Ġ??": 6638,
      "kaeka": 6639,
      "kapirpa": 6640,
      "orusu": 6641,
      "orari": 6642,
      "Ġnetopa": 6643,
      "sie": 6644,
      "simon": 6645,
      "siyuk": 6646,
      "sisirmuka": 6647,
      "uspa": 6648,
      "ununi": 6649,
      "unai": 6650,
      "unaske": 6651,
      "Ġkamu": 6652,
      "keni": 6653,
      "Ġetap": 6654,
      "Ġekopi": 6655,
      "nou": 6656,
      "nomoto": 6657,
      "koon": 6658,
      "koyo": 6659,
      "kokikkik": 6660,
      "kokusai": 6661,
      "parka": 6662,
      "pahaw": 6663,
      "parko": 6664,
      "parse": 6665,
      "Ġikaspaotte": 6666,
      "Ġiyuta": 6667,
      "ramasu": 6668,
      "cipici": 6669,
      "Ġousi": 6670,
      "Ġociw": 6671,
      "Ġotarunay": 6672,
      "Ġrunni": 6673,
      "nukosne": 6674,
      "nucaktek": 6675,
      "Ġyaka": 6676,
      "tumun": 6677,
      "onnay": 6678,
      "Ġpeto": 6679,
      "Ġorun": 6680,
      "Ġsira": 6681,
      "Ġsipet": 6682,
      "Ġsigeru": 6683,
      "pee": 6684,
      "uwepirka": 6685,
      "anene": 6686,
      "Ġupun": 6687,
      "Ġuhopunpare": 6688,
      "akan": 6689,
      "akma": 6690,
      "Ġhayok": 6691,
      "saki": 6692,
      "saru": 6693,
      "sawre": 6694,
      "nikar": 6695,
      "nisa": 6696,
      "Ġkita": 6697,
      "Ġkiyay": 6698,
      "Ġkikaku": 6699,
      "...\"": 6700,
      "pikan": 6701,
      "pinay": 6702,
      "piyep": 6703,
      "Ġnaka": 6704,
      "Ġsoku": 6705,
      "rammano": 6706,
      "hokke": 6707,
      "Ġkou": 6708,
      "Ġkoen": 6709,
      "harki": 6710,
      "Ġniwen": 6711,
      "suwan": 6712,
      "men": 6713,
      "metu": 6714,
      "heca": 6715,
      "hekotpa": 6716,
      "hemuymuye": 6717,
      "Ġtutanu": 6718,
      "Ġheta": 6719,
      "Ġheci": 6720,
      "yayoterke": 6721,
      "Ġsenne": 6722,
      "rutom": 6723,
      "Ġsada": 6724,
      "Ġsaraha": 6725,
      "rayparaparak": 6726,
      "rayninne": 6727,
      "sokoni": 6728,
      "soyaunkur": 6729,
      "arke": 6730,
      "Ġhoken": 6731,
      "Ġhokke": 6732,
      "Ġhoyuppa": 6733,
      "Ġhozonkai": 6734,
      "Ġpirkare": 6735,
      "humpe": 6736,
      "puturu": 6737,
      "ashi": 6738,
      "asnure": 6739,
      "kushima": 6740,
      "ãģ¦ãĤĭ": 6741,
      "Ġwenkewtum": 6742,
      "ãģĭãĤĵ": 6743,
      "ãģĭãģĹãģ¦": 6744,
      "oray": 6745,
      "oramu": 6746,
      "mur": 6747,
      "ãģ®ãģ¯": 6748,
      "ãģ®æľ¨": 6749,
      "Ġposiresikte": 6750,
      "ikir": 6751,
      "korewen": 6752,
      "Ġmac": 6753,
      "Ġmarapto": 6754,
      "ãģ£ãģĵ": 6755,
      "Ġrayayayse": 6756,
      "acikara": 6757,
      "yaykonumnumu": 6758,
      "ãĤĴãģĹ": 6759,
      "ãĤĴãģĹãģ¦": 6760,
      "Ġusam": 6761,
      "Ġusaraye": 6762,
      "omar": 6763,
      "ãģ¨æĢĿãģ£ãģ¦": 6764,
      "Ġsantekehe": 6765,
      "sipini": 6766,
      "ukokikkik": 6767,
      "ukopayoka": 6768,
      "Ġkonkani": 6769,
      "apekur": 6770,
      "ãĥį": 6771,
      "ãĥŀ": 6772,
      "ãģıãģĻ": 6773,
      "somoka": 6774,
      "petpa": 6775,
      "kerayka": 6776,
      "Ġukopokor": 6777,
      "Ġukoomanne": 6778,
      "haweoka": 6779,
      "sarus": 6780,
      "ruratki": 6781,
      "Ġriten": 6782,
      "eramuriten": 6783,
      "monnas": 6784,
      "wasnu": 6785,
      "ãģĬèıĵåŃĲ": 6786,
      "oyka": 6787,
      "oyanene": 6788,
      "eyayramekote": 6789,
      "buro": 6790,
      "kewkata": 6791,
      "ãģ¾ãģ¦": 6792,
      "äºĴãģĦ": 6793,
      "oyap": 6794,
      "Ġkiraw": 6795,
      "rokpe": 6796,
      "honko": 6797,
      "Ġ15": 6798,
      "kanika": 6799,
      "matnepoutari": 6800,
      "Ġoyamokte": 6801,
      "ãģ¡ãĤī": 6802,
      "Ġrewsioka": 6803,
      "esirkur": 6804,
      "ä½¿": 6805,
      "ä½ĵ": 6806,
      "Ġmakke": 6807,
      "ociw": 6808,
      "Ġeymek": 6809,
      "atuyya": 6810,
      "pesunkur": 6811,
      "utasaroski": 6812,
      "tukno": 6813,
      "kewtumuhu": 6814,
      "pananpe": 6815,
      "rewsioka": 6816,
      "Ġkimuspu": 6817,
      "ãģ¤ãĤĤ": 6818,
      "ãģ¤ãģĳãĤĭ": 6819,
      "Ġkoyayrayke": 6820,
      "Ġkoyaykatanu": 6821,
      "toykooripak": 6822,
      "paroho": 6823,
      "parosuke": 6824,
      "æľĿ": 6825,
      "ãģĪãģ¯": 6826,
      "Ġarikikino": 6827,
      "Ġsiresik": 6828,
      "sireanu": 6829,
      "sirekatta": 6830,
      "matakihi": 6831,
      "kinakar": 6832,
      "rarire": 6833,
      "irampita": 6834,
      "piratur": 6835,
      "pitapita": 6836,
      "Ġkimunpe": 6837,
      "å°»": 6838,
      "ä»Ĭåº¦": 6839,
      "ãģ¿ãģŁãģĦ": 6840,
      "racia": 6841,
      "Ġtomte": 6842,
      "ikuru": 6843,
      "upaskuma": 6844,
      "karkuutari": 6845,
      "haruhu": 6846,
      "éģĬ": 6847,
      "è¦ĭãģ¦": 6848,
      "oskep": 6849,
      "ekisar": 6850,
      "Ġeese": 6851,
      "ãģ®éŁ³": 6852,
      "çģ«ãģ®ç¥ŀæ§ĺ": 6853,
      "boca": 6854,
      "ttektek": 6855,
      "kokatun": 6856,
      "huskotoy": 6857,
      "momarpare": 6858,
      "episkaun": 6859,
      "Ġyayomap": 6860,
      "unarpehe": 6861,
      "Ġhaahaa": 6862,
      "ototke": 6863,
      "ãģ«è¡Įãģı": 6864,
      "ãģ®æ®ĭãĤĬ": 6865,
      "supuyaatte": 6866,
      "tamasay": 6867,
      "ketupe": 6868,
      "Ġmarattokor": 6869,
      "ratcire": 6870,
      "ä¼¼": 6871,
      "åľŁ": 6872,
      "risparispa": 6873,
      "kosinninu": 6874,
      "Ġnimaraha": 6875,
      "æķ£": 6876,
      "èĨ¿": 6877,
      "Ġsusumoto": 6878,
      "sittokes": 6879,
      "ruokasiturire": 6880,
      "Ġhousyasei": 6881,
      "ãģĦãĤįãģĦãĤį": 6882,
      "iotta": 6883,
      "è»Ĭ": 6884,
      "toskaha": 6885,
      "çŁ¥ãĤīãģªãģĦ": 6886,
      "è¿Ķ": 6887,
      "omonnure": 6888,
      "Ġekopas": 6889,
      "Ġpunkine": 6890,
      "ãģĭçĹĽãģĦ": 6891,
      "ĥĮè²ł": 6892,
      "ijiro": 6893,
      "é¦¬": 6894,
      "Ġcicikew": 6895,
      "katayrotke": 6896,
      "Ġermu": 6897,
      "manit": 6898,
      "Ġyayoterkeeciw": 6899,
      "Ġsiwenpa": 6900,
      "è¦ļãģĪ": 6901,
      "korampetetne": 6902,
      "gutaimu": 6903,
      "\".": 6904,
      ".)": 6905,
      "42": 6906,
      "57": 6907,
      "76": 6908,
      "77": 6909,
      "87": 6910,
      "=[": 6911,
      "aa": 6912,
      "aka": 6913,
      "ahuppa": 6914,
      "bori": 6915,
      "betu": 6916,
      "bussitu": 6917,
      "ce": 6918,
      "canke": 6919,
      "dori": 6920,
      "ekoyki": 6921,
      "ekatta": 6922,
      "ekasnukar": 6923,
      "epuriwen": 6924,
      "epaskuma": 6925,
      "hana": 6926,
      "ica": 6927,
      "itasa": 6928,
      "ioyra": 6929,
      "imire": 6930,
      "mkote": 6931,
      "mori": 6932,
      "oho": 6933,
      "omke": 6934,
      "ohum": 6935,
      "otekna": 6936,
      "tpe": 6937,
      "ttuy": 6938,
      "upun": 6939,
      "yoni": 6940,
      "¦¹": 6941,
      "¬ī": 6942,
      "å§ī": 6943,
      "å¬ī": 6944,
      "æĮ": 6945,
      "èĪ": 6946,
      "éĥ": 6947,
      "é©ļ": 6948,
      "ĠãģĹ": 6949,
      "ĠãģĤãģ®": 6950,
      "Įäºº": 6951,
      "anto": 6952,
      "kae": 6953,
      "Ġaa": 6954,
      "Ġao": 6955,
      "taman": 6956,
      "tampaku": 6957,
      "Ġpuyne": 6958,
      "Ġhunpe": 6959,
      "sika": 6960,
      "siresi": 6961,
      "sietu": 6962,
      "sitaku": 6963,
      "sitayki": 6964,
      "Ġanmip": 6965,
      "usei": 6966,
      "Ġesanniyo": 6967,
      "Ġerum": 6968,
      "kikor": 6969,
      "kinup": 6970,
      "notayne": 6971,
      "yaka": 6972,
      "yatto": 6973,
      "koto": 6974,
      "koat": 6975,
      "kotarara": 6976,
      "koesikari": 6977,
      "koonnuonnu": 6978,
      "korkay": 6979,
      "pay": 6980,
      "patci": 6981,
      "pataraye": 6982,
      "Ġiro": 6983,
      "Ġitasa": 6984,
      "Ġitomnukar": 6985,
      "Ġiisoneka": 6986,
      "uyka": 6987,
      "rami": 6988,
      "ciye": 6989,
      "Ġosuke": 6990,
      "Ġopokin": 6991,
      "nuyar": 6992,
      "Ġtaye": 6993,
      "Ġyayu": 6994,
      "temkor": 6995,
      "Ġperke": 6996,
      "Ġsipus": 6997,
      "peki": 6998,
      "pera": 6999,
      "karkamuy": 7000,
      "senne": 7001,
      "yepa": 7002,
      "Ġutasare": 7003,
      "moku": 7004,
      "nika": 7005,
      "nisike": 7006,
      "Ġkiri": 7007,
      "Ġkisa": 7008,
      "Ġkiru": 7009,
      "Ġcie": 7010,
      "Ġcipa": 7011,
      "Ġcire": 7012,
      "Ġcipo": 7013,
      "kutasa": 7014,
      "pipi": 7015,
      "pinne": 7016,
      "pitne": 7017,
      "Ġsonapi": 7018,
      "tekkor": 7019,
      "wenpe": 7020,
      "Ġkowen": 7021,
      "Ġkocaranke": 7022,
      "Ġnici": 7023,
      "suwop": 7024,
      "suppakar": 7025,
      "merayke": 7026,
      "mesusu": 7027,
      "heta": 7028,
      "Ġtures": 7029,
      "Ġheriat": 7030,
      "Ġheijiro": 7031,
      "yaynan": 7032,
      "Ġsey": 7033,
      "Ġsas": 7034,
      "raytekpake": 7035,
      "sono": 7036,
      "sospa": 7037,
      "sompayki": 7038,
      "Ġtosi": 7039,
      "humko": 7040,
      "huraha": 7041,
      "yoin": 7042,
      "Ġhawokay": 7043,
      "konkane": 7044,
      "Ġce": 7045,
      "kusamip": 7046,
      "ãģĦãģ£": 7047,
      "ãģĦãģªãģĦ": 7048,
      "Ġkewre": 7049,
      "Ġkemus": 7050,
      "Ġketusi": 7051,
      "Ġsirine": 7052,
      "Ġhur": 7053,
      "Ġekte": 7054,
      "Ġekanna": 7055,
      "mumke": 7056,
      "Ġsirsak": 7057,
      "Ġsirosma": 7058,
      "tapta": 7059,
      "okke": 7060,
      "okano": 7061,
      "ãģ®ãĤĪãģĨãģ«": 7062,
      "inehuy": 7063,
      "Ġposak": 7064,
      "Ġyanto": 7065,
      "pirkayepi": 7066,
      "Ġyaykememsu": 7067,
      "Ġyayokapaste": 7068,
      "ãģ£ãģ¯": 7069,
      "Ġtepa": 7070,
      "Ġrak": 7071,
      "uppusi": 7072,
      "orepunpe": 7073,
      "Ġmim": 7074,
      "ãĤĴãģĭ": 7075,
      "ãĤĴãģŁãģıãģķãĤĵ": 7076,
      "sante": 7077,
      "sankokka": 7078,
      "Ġrokpa": 7079,
      "itakkar": 7080,
      "Ġsanpe": 7081,
      "Ġsanput": 7082,
      "ãģ«ãģĤ": 7083,
      "ãģ«ç½®": 7084,
      "ukoe": 7085,
      "ukopokor": 7086,
      "ukosinewpa": 7087,
      "âĢĻ=": 7088,
      "Ġsikrap": 7089,
      "Ġsiknure": 7090,
      "Ġpuroguramu": 7091,
      "ç§ģãģ®é": 7092,
      "ãģ£ãģ¦è¨ĢãģĨ": 7093,
      "toykosi": 7094,
      "ãĥŃ": 7095,
      "munno": 7096,
      "neyun": 7097,
      "oriwak": 7098,
      "Ġahunte": 7099,
      "ãģĵãģ®ç": 7100,
      "Ġramno": 7101,
      "saku": 7102,
      "moynak": 7103,
      "erao": 7104,
      "Ġriwak": 7105,
      "sinoye": 7106,
      "damu": 7107,
      "pewtanke": 7108,
      "Ġeikka": 7109,
      "ranma": 7110,
      "ranuka": 7111,
      "kosiyupu": 7112,
      "ãģĬãģĭ": 7113,
      "ãģĬç¥": 7114,
      "eyaynita": 7115,
      "Ġuwepekennu": 7116,
      "Ġtuna": 7117,
      "pisun": 7118,
      "Ġtuytak": 7119,
      "Ġtuykasike": 7120,
      "ãĤĬãģ¦": 7121,
      "utarorkehe": 7122,
      "ikema": 7123,
      "ãģĿãĤĮãģ¦": 7124,
      "ãģ¾ãģ£ãģ¦": 7125,
      "ruyruypa": 7126,
      "omapkar": 7127,
      "Ġ14": 7128,
      "Ġapapa": 7129,
      "Ġmetot": 7130,
      "sampesituri": 7131,
      "é£Ľ": 7132,
      "Ġtumsak": 7133,
      "Ġuepirka": 7134,
      "Ġuetunuyse": 7135,
      "samayunkur": 7136,
      "minare": 7137,
      "siwtosapo": 7138,
      "siwtowtari": 7139,
      "rupnemat": 7140,
      "tonomat": 7141,
      "woterke": 7142,
      "uepeker": 7143,
      "Ġban": 7144,
      "kaigi": 7145,
      "apapu": 7146,
      "rapokta": 7147,
      "Ġmatapa": 7148,
      "Ġmatamantaci": 7149,
      "é£Łäºĭ": 7150,
      "sakekor": 7151,
      "å¤©": 7152,
      "å¤ª": 7153,
      "inawneni": 7154,
      "ãģ¤ãģı": 7155,
      "ãģĦãģŁãĤī": 7156,
      "Ġ.âĢĻ": 7157,
      "åĪĢ": 7158,
      "åĪĪ": 7159,
      "kimunto": 7160,
      "Ġoripakno": 7161,
      "Ġeyayhanokka": 7162,
      "atteynemosir": 7163,
      "Ġrurapa": 7164,
      "irampitta": 7165,
      "kokow": 7166,
      "pirautur": 7167,
      "cupka": 7168,
      "chitoshi": 7169,
      "Ġkattuymano": 7170,
      "niwkeste": 7171,
      "æĸĻ": 7172,
      "134": 7173,
      "Ġesikari": 7174,
      "Ġesikarun": 7175,
      "ãģĭæĤª": 7176,
      "kokko": 7177,
      "ãģĿãģĨãģ«": 7178,
      "éģĭ": 7179,
      "éģĶ": 7180,
      "Ġotutanu": 7181,
      "å¯ĴãģĦ": 7182,
      "åħ¥ãĤĭ": 7183,
      "kutahuci": 7184,
      "asurkor": 7185,
      "Ġitaya": 7186,
      "Ġtokpa": 7187,
      "åĪĨãģĭãĤīãģªãģĦ": 7188,
      "èģŀãģı": 7189,
      "èĢķ": 7190,
      "koterkere": 7191,
      "tontone": 7192,
      "Ġnewaan": 7193,
      "ekimatekka": 7194,
      "nupekorapapse": 7195,
      "éĽĨ": 7196,
      "Ġãģ£ãģ¦ãģĦãģĨ": 7197,
      "å¼·ãģĦ": 7198,
      "Ġineapkus": 7199,
      "ãģıãģªãģ£ãģ¦": 7200,
      "ãģ»ãģĨ": 7201,
      "asinpe": 7202,
      "Ġainugo": 7203,
      "Ġceppokoyki": 7204,
      "Ġhonisik": 7205,
      "ãģ«è¡Įãģį": 7206,
      "Ġkemaha": 7207,
      "Ġkeweri": 7208,
      "Ġcotca": 7209,
      "å¸Ń": 7210,
      "Ġjis": 7211,
      "aroaciki": 7212,
      "nuyanuya": 7213,
      "panaunpe": 7214,
      "pirkakurnunuke": 7215,
      "yanoya": 7216,
      "ramatkor": 7217,
      "æµľ": 7218,
      "éĻ¤": 7219,
      "Ġkapattatni": 7220,
      "opeope": 7221,
      "tasmak": 7222,
      "ç©º": 7223,
      "sirkamu": 7224,
      "nippon": 7225,
      "oharkisoun": 7226,
      "åĲĪãģĨ": 7227,
      "sittokap": 7228,
      "Ġyaykatcipi": 7229,
      "simneno": 7230,
      "æĬľ": 7231,
      "tumpuorunkur": 7232,
      "æģ¥": 7233,
      "Ġoharkisoun": 7234,
      "èĤī": 7235,
      "Ġesirkik": 7236,
      "Ġeposokane": 7237,
      "ãģįãĤĮãģĦãģ«": 7238,
      "çĽ®": 7239,
      "Ġyaykurkata": 7240,
      "å¼ķãģį": 7241,
      "Ġcanan": 7242,
      "ãģ®å®Ł": 7243,
      "korayke": 7244,
      "esikiso": 7245,
      "çªĵ": 7246,
      "Ġkatcam": 7247,
      "é³´": 7248,
      "ãģĨãĥ¼ãĤĵ": 7249,
      "Ġkorayniwkes": 7250,
      "Ġhamuhu": 7251,
      "é«ª": 7252,
      "kuttomkonna": 7253,
      "pirkanunuke": 7254,
      "piyepkore": 7255,
      "yayoterkeeciw": 7256,
      "Ġekannayukar": 7257,
      ".ï¼»": 7258,
      "66": 7259,
      "81": 7260,
      "asu": 7261,
      "bai": 7262,
      "ekaspa": 7263,
      "ehanke": 7264,
      "ehuyne": 7265,
      "gei": 7266,
      "ioka": 7267,
      "iporo": 7268,
      "ikure": 7269,
      "itupare": 7270,
      "li": 7271,
      "nano": 7272,
      "ous": 7273,
      "oun": 7274,
      "oku": 7275,
      "opi": 7276,
      "psike": 7277,
      "tpo": 7278,
      "tyu": 7279,
      "ttaro": 7280,
      "upa": 7281,
      "ukata": 7282,
      "urihi": 7283,
      "ukapuspare": 7284,
      "windows": 7285,
      "¨ĺ": 7286,
      "¹¯": 7287,
      "ÑĢ": 7288,
      "å©": 7289,
      "åĤ": 7290,
      "åĭ": 7291,
      "æ·": 7292,
      "æħ®": 7293,
      "æ¹¯": 7294,
      "ç³": 7295,
      "çĤ": 7296,
      "è£": 7297,
      "éª": 7298,
      "Ġãģ¨ãģĭ": 7299,
      "Ĵãģı": 7300,
      "Ķ·": 7301,
      "Ġkyou": 7302,
      "neka": 7303,
      "nefu": 7304,
      "orunu": 7305,
      "takup": 7306,
      "Ġnesun": 7307,
      "Ġhore": 7308,
      "site": 7309,
      "sirihi": 7310,
      "Ġwak": 7311,
      "Ġkayki": 7312,
      "Ġkararak": 7313,
      "Ġekas": 7314,
      "Ġepirka": 7315,
      "Ġekasure": 7316,
      "Ġesikte": 7317,
      "Ġekiroroan": 7318,
      "Ġerankarap": 7319,
      "Ġetoro": 7320,
      "Ġeraykimatek": 7321,
      "kimi": 7322,
      "noto": 7323,
      "nociw": 7324,
      "yas": 7325,
      "kokira": 7326,
      "koetaye": 7327,
      "kopoye": 7328,
      "korari": 7329,
      "Ġiresu": 7330,
      "Ġiomap": 7331,
      "Ġiyairaykere": 7332,
      "Ġsano": 7333,
      "Ġoki": 7334,
      "Ġotani": 7335,
      "nukoomap": 7336,
      "Ġtawakane": 7337,
      "rikiki": 7338,
      "mawne": 7339,
      "top": 7340,
      "tou": 7341,
      "tomi": 7342,
      "tey": 7343,
      "Ġhina": 7344,
      "onkar": 7345,
      "ontom": 7346,
      "Ġperpa": 7347,
      "rew": 7348,
      "retto": 7349,
      "Ġsikotan": 7350,
      "Ġsibu": 7351,
      "Ġsietaye": 7352,
      "perke": 7353,
      "pero": 7354,
      "pepatki": 7355,
      "karse": 7356,
      "seki": 7357,
      "Ġukao": 7358,
      "Ġucas": 7359,
      "Ġukoraye": 7360,
      "Ġhasa": 7361,
      "sautari": 7362,
      "sakir": 7363,
      "samamni": 7364,
      "Ġcita": 7365,
      "Ġciwente": 7366,
      "tanan": 7367,
      "tanrammano": 7368,
      "mikan": 7369,
      "Ġkamuymaw": 7370,
      "sirpa": 7371,
      "sirkik": 7372,
      "teksama": 7373,
      "uniste": 7374,
      "Ġkosin": 7375,
      "Ġkoytak": 7376,
      "Ġkoarikiki": 7377,
      "Ġnoto": 7378,
      "Ġnotayne": 7379,
      "Ġnirura": 7380,
      "Ġnitat": 7381,
      "Ġpiski": 7382,
      "Ġpiyapa": 7383,
      "mekka": 7384,
      "Ġturpa": 7385,
      "Ġhehewpa": 7386,
      "Ġherasi": 7387,
      "Ġheburai": 7388,
      "taktak": 7389,
      "yaykatuwen": 7390,
      "yaykememsu": 7391,
      "soyaunmat": 7392,
      "Ġhos": 7393,
      "Ġhoma": 7394,
      "Ġhosanke": 7395,
      "Ġhomar": 7396,
      "Ġhokootte": 7397,
      "huri": 7398,
      "yokore": 7399,
      "yokunnure": 7400,
      "konram": 7401,
      "kasmano": 7402,
      "ramuriten": 7403,
      "ãģ¦ãģªãģĦ": 7404,
      "ãģĦãģ£ãģŁãĤī": 7405,
      "Ġkera": 7406,
      "punpuni": 7407,
      "Ġkotankes": 7408,
      "ãģĭåĩº": 7409,
      "Ġmomanpe": 7410,
      "muraypa": 7411,
      "Ġsiruwe": 7412,
      "Ġsirmata": 7413,
      "Ġsirkanuye": 7414,
      "cayaya": 7415,
      "kanrusuy": 7416,
      "ãģ®äºº": 7417,
      "ãģ®æĸ¹": 7418,
      "ikiya": 7419,
      "ikipa": 7420,
      "Ġneppawatap": 7421,
      "Ġporosir": 7422,
      "Ġyaynupa": 7423,
      "Ġyaynumiwen": 7424,
      "Ġyayteknata": 7425,
      "epuy": 7426,
      "Ġnup": 7427,
      "Ġnutap": 7428,
      "kimunpe": 7429,
      "Ġmaskin": 7430,
      "ãģ£ãģĭãĤĬ": 7431,
      "Ġtepu": 7432,
      "Ġtewnin": 7433,
      "Ġrawne": 7434,
      "ãģªãģı": 7435,
      "orewsi": 7436,
      "eimek": 7437,
      "sanpe": 7438,
      "ãģĹãĤĭ": 7439,
      "ipemnara": 7440,
      "ãģ«ç§ģãģ¯": 7441,
      "ãģ«ãģ¤": 7442,
      "ãģ«é£Łãģ¸ãģķ": 7443,
      "unuutari": 7444,
      "ukoaynukor": 7445,
      "ukoparaparak": 7446,
      "asinkaro": 7447,
      "ecip": 7448,
      "hawkere": 7449,
      "ento": 7450,
      "enkasi": 7451,
      "enkaske": 7452,
      "Ġtapkop": 7453,
      "makke": 7454,
      "makkosanu": 7455,
      "Ġrurihi": 7456,
      "ãģķãģ¾": 7457,
      "ãĥİ": 7458,
      "munnuye": 7459,
      "munkotata": 7460,
      "arkipa": 7461,
      "kirpu": 7462,
      "kotus": 7463,
      "kotori": 7464,
      "Ġramne": 7465,
      "soyun": 7466,
      "Ġukoonkami": 7467,
      "Ġukocaranke": 7468,
      "Ġukoposak": 7469,
      "tcini": 7470,
      "naykesinne": 7471,
      "Ġtoypu": 7472,
      "dake": 7473,
      "dato": 7474,
      "renkane": 7475,
      "monrayke": 7476,
      "oykesne": 7477,
      "eyaykatuwen": 7478,
      "inanpe": 7479,
      "inkare": 7480,
      "inunpa": 7481,
      "mkomse": 7482,
      "Ġuwepirka": 7483,
      "pisne": 7484,
      "Ġkotomka": 7485,
      "ãĤĬãģĻãĤĭ": 7486,
      "sapane": 7487,
      "butukan": 7488,
      "epunkinere": 7489,
      "Ġiyohaysitomare": 7490,
      "ãģ¾ãĤĭ": 7491,
      "anay": 7492,
      "Ġ13": 7493,
      "huymampa": 7494,
      "Ġetokooyki": 7495,
      "esitayki": 7496,
      "Ġrupneutar": 7497,
      "Ġiwakpa": 7498,
      "Ġmesi": 7499,
      "Ġmeske": 7500,
      "sampepokas": 7501,
      "Ġatuyso": 7502,
      "Ġoskur": 7503,
      "Ġoskoni": 7504,
      "ziten": 7505,
      "Ġayusni": 7506,
      "siwtoacapo": 7507,
      "ninke": 7508,
      "Ġesani": 7509,
      "mintuci": 7510,
      "kohepututu": 7511,
      "Ġinumpa": 7512,
      "atnu": 7513,
      "osikiru": 7514,
      "Ġninar": 7515,
      "å¤«": 7516,
      "toykocotca": 7517,
      "ãģĹãģŁãĤī": 7518,
      "otutanu": 7519,
      "eaykapte": 7520,
      "sirkurante": 7521,
      "kuttar": 7522,
      "sineanto": 7523,
      "Ġhorari": 7524,
      "rikinne": 7525,
      "Ġmurse": 7526,
      "sukupka": 7527,
      "é£Łãģ¸çī©": 7528,
      "mototo": 7529,
      "sinnatoyne": 7530,
      "cuptek": 7531,
      "Ġupaskuma": 7532,
      "Ġpokorpa": 7533,
      "Ġinunukaski": 7534,
      "Ġsengen": 7535,
      "Ġmintuci": 7536,
      "yakanakne": 7537,
      "ãģĤãģ®äºº": 7538,
      "orowaun": 7539,
      "Ġsumawne": 7540,
      "Ġrepunkamuy": 7541,
      "Ġshiro": 7542,
      "ãģ®ãģ¦ç§ģãģ¯": 7543,
      "Ġesitciw": 7544,
      "ãģ¨ãģĵãģĭ": 7545,
      "wnaraye": 7546,
      "ãģµãģµ": 7547,
      "kohepokiki": 7548,
      "Ġ29": 7549,
      "esone": 7550,
      "esouk": 7551,
      "2007": 7552,
      "Ġde": 7553,
      "haytare": 7554,
      "Ġniskur": 7555,
      "Ġsaranpe": 7556,
      "asurani": 7557,
      "Ġeukoytak": 7558,
      "Ġirarakewtumkor": 7559,
      "Ġtamkur": 7560,
      "Ġteketok": 7561,
      "Ġkaskamuye": 7562,
      "koruyruypa": 7563,
      "Ġsiturire": 7564,
      "horikasi": 7565,
      "éĽª": 7566,
      "ãģĹãģ¾ãģĨ": 7567,
      "ehotkey": 7568,
      "kosawosma": 7569,
      "episkan": 7570,
      "asinke": 7571,
      "å¹²": 7572,
      "éĩį": 7573,
      "otopi": 7574,
      "Ġisane": 7575,
      "ä¹Ĺ": 7576,
      "å¯ĿãĤĭ": 7577,
      "èĩªåĪĨãģ®": 7578,
      "ä¾¿": 7579,
      "sinusinu": 7580,
      "koramnukar": 7581,
      "æĮģãģ¡": 7582,
      "nunte": 7583,
      "Ġhanrok": 7584,
      "pittekka": 7585,
      "ç§ģãģ®æīĭ": 7586,
      "Ġkanpisos": 7587,
      "æµģ": 7588,
      "éĿĻ": 7589,
      "sotkikar": 7590,
      "ç«¯": 7591,
      "yaykakik": 7592,
      "yaykatcipi": 7593,
      "wsaraye": 7594,
      "ç©Ģ": 7595,
      "tewnin": 7596,
      "Ġtemnikor": 7597,
      "Ġkinasutkamuy": 7598,
      "Ġsenzyuminzoku": 7599,
      "kopaktuye": 7600,
      "yayramkikkar": 7601,
      "Ġcakcak": 7602,
      "shitsugen": 7603,
      "Ġinantasare": 7604,
      "ohawkop": 7605,
      "çĨ±": 7606,
      "Ġhotanukar": 7607,
      "åľ°åĲį": 7608,
      "æĪ¸ãĤĴ": 7609,
      "Ġwenpurikor": 7610,
      "è¿½ãģĦ": 7611,
      "Ġeranak": 7612,
      "Ġsikkama": 7613,
      "Ġkinuptoy": 7614,
      "Ġehatuy": 7615,
      "Ġosatuy": 7616,
      "Ġtamanko": 7617,
      "Ġbakuhu": 7618,
      "kesukuran": 7619,
      "éģłæħ®": 7620,
      "Ġsitcuk": 7621,
      "irwaki": 7622,
      "Ġezochi": 7623,
      "kotaktaku": 7624,
      "genpatu": 7625,
      "sinnayno": 7626,
      "kanpererse": 7627,
      "Ġraibu": 7628,
      "kumra": 7629,
      "Ġherekus": 7630,
      "ãĤĴæĮģãģ£ãģ¦": 7631,
      "simaketare": 7632,
      "topikkusu": 7633,
      "emusuka": 7634,
      "äºĴãģĦãģ«": 7635,
      "å¬īãģĹãģĦ": 7636,
      "toykosikerayka": 7637,
      "Ġineapkusta": 7638,
      "nefune": 7639,
      "Ġotanikor": 7640,
      "78": 7641,
      "85": 7642,
      "]...": 7643,
      "aei": 7644,
      "aykap": 7645,
      "du": 7646,
      "ete": 7647,
      "ehe": 7648,
      "emak": 7649,
      "ezo": 7650,
      "eepa": 7651,
      "eoyamokte": 7652,
      "ehunke": 7653,
      "eese": 7654,
      "etoro": 7655,
      "ekamke": 7656,
      "ik": 7657,
      "ion": 7658,
      "iresu": 7659,
      "isem": 7660,
      "itomnukar": 7661,
      "ikuso": 7662,
      "kpe": 7663,
      "njin": 7664,
      "otek": 7665,
      "oyo": 7666,
      "otuye": 7667,
      "osike": 7668,
      "okimun": 7669,
      "ouse": 7670,
      "okikirmuy": 7671,
      "ppe": 7672,
      "pante": 7673,
      "upew": 7674,
      "utasa": 7675,
      "utumam": 7676,
      "uterkere": 7677,
      "woro": 7678,
      "zyun": 7679,
      "åģ": 7680,
      "åĻĤ": 7681,
      "çĭ": 7682,
      "è¸": 7683,
      "éī": 7684,
      "Ġnne": 7685,
      "Ġä½ķ": 7686,
      "Ġzyo": 7687,
      "Ġmunciro": 7688,
      "ĵãģĦ": 7689,
      "Ġkuy": 7690,
      "new": 7691,
      "neoro": 7692,
      "kappa": 7693,
      "orma": 7694,
      "orep": 7695,
      "Ġatari": 7696,
      "Ġaykap": 7697,
      "taspare": 7698,
      "Ġneanpe": 7699,
      "sis": 7700,
      "siso": 7701,
      "sikasuy": 7702,
      "situriri": 7703,
      "sikaopiwki": 7704,
      "sikirpa": 7705,
      "Ġanan": 7706,
      "Ġanani": 7707,
      "ushi": 7708,
      "Ġkatam": 7709,
      "Ġeunno": 7710,
      "Ġekira": 7711,
      "Ġepeka": 7712,
      "Ġekaspa": 7713,
      "Ġehosi": 7714,
      "Ġehorak": 7715,
      "Ġesipinpa": 7716,
      "nopo": 7717,
      "nonkar": 7718,
      "nokihi": 7719,
      "noypa": 7720,
      "yaspa": 7721,
      "kos": 7722,
      "koca": 7723,
      "kokam": 7724,
      "koyairayke": 7725,
      "kowepekennu": 7726,
      "koro": 7727,
      "koroski": 7728,
      "paspa": 7729,
      "weno": 7730,
      "Ġirura": 7731,
      "Ġikuso": 7732,
      "rakar": 7733,
      "ramacihi": 7734,
      "rarse": 7735,
      "ratori": 7736,
      "cikoykip": 7737,
      "cimakani": 7738,
      "Ġsorma": 7739,
      "Ġous": 7740,
      "Ġopas": 7741,
      "Ġoterke": 7742,
      "Ġosonkokote": 7743,
      "Ġtat": 7744,
      "ria": 7745,
      "ritu": 7746,
      "makasi": 7747,
      "toku": 7748,
      "Ġyar": 7749,
      "Ġhiro": 7750,
      "Ġhidaka": 7751,
      "tune": 7752,
      "ture": 7753,
      "tusir": 7754,
      "reka": 7755,
      "Ġsicari": 7756,
      "pempe": 7757,
      "petaru": 7758,
      "penake": 7759,
      "sekar": 7760,
      "sekai": 7761,
      "setakko": 7762,
      "yerotke": 7763,
      "Ġuhayta": 7764,
      "Ġuwari": 7765,
      "monasap": 7766,
      "sakayokar": 7767,
      "saikuru": 7768,
      "nikanika": 7769,
      "Ġkike": 7770,
      "Ġkicitce": 7771,
      "...ï¼Ī": 7772,
      "Ġparko": 7773,
      "Ġparse": 7774,
      "Ġciwas": 7775,
      "Ġcisina": 7776,
      "piri": 7777,
      "pirke": 7778,
      "pitata": 7779,
      "tantani": 7780,
      "mim": 7781,
      "ynupitara": 7782,
      "Ġnakka": 7783,
      "Ġsohuto": 7784,
      "rampak": 7785,
      "homar": 7786,
      "Ġkamuynisuk": 7787,
      "sirpaykar": 7788,
      "sirkanuye": 7789,
      "sirokani": 7790,
      "wenpoho": 7791,
      "Ġkote": 7792,
      "Ġkouk": 7793,
      "Ġkohum": 7794,
      "Ġkokusai": 7795,
      "hako": 7796,
      "Ġnitumam": 7797,
      "suko": 7798,
      "memokka": 7799,
      "orokon": 7800,
      "Ġturay": 7801,
      "Ġhetari": 7802,
      "takpa": 7803,
      "ruen": 7804,
      "ark": 7805,
      "arkotomka": 7806,
      "Ġtopen": 7807,
      "Ġtopuspet": 7808,
      "yoyse": 7809,
      "puray": 7810,
      "tanetto": 7811,
      "Ġcoka": 7812,
      "Ġcari": 7813,
      "Ġcarpa": 7814,
      "Ġcehorkakep": 7815,
      "Ġayneno": 7816,
      "ramusinne": 7817,
      "kuski": 7818,
      "aninjin": 7819,
      "Ġaynuhu": 7820,
      "ãģ¦ç§ģãģ¯": 7821,
      "Ġwenruy": 7822,
      "Ġkekke": 7823,
      "usawnu": 7824,
      "Ġyudaya": 7825,
      "ãģĭãģ£ãģ¦": 7826,
      "ãģĭãģĽãĤĭ": 7827,
      "oratki": 7828,
      "oramunno": 7829,
      "koyon": 7830,
      "Ġsirotetterke": 7831,
      "tappa": 7832,
      "Ġsup": 7833,
      "Ġsutu": 7834,
      "okuy": 7835,
      "okkew": 7836,
      "ãģ®ä¸Ĭãģ«": 7837,
      "utariutar": 7838,
      "Ġwanpe": 7839,
      "Ġnantuyere": 7840,
      "pirkaonnere": 7841,
      "Ġyaykire": 7842,
      "Ġyaycaroyki": 7843,
      "Ġyaykarkarsere": 7844,
      "Ġnupki": 7845,
      "tokse": 7846,
      "kimuspu": 7847,
      "Ġmayayke": 7848,
      "kariso": 7849,
      "Ġtekor": 7850,
      "Ġtempa": 7851,
      "Ġtetsu": 7852,
      "oshi": 7853,
      "osmak": 7854,
      "Ġrayap": 7855,
      "Ġenkasike": 7856,
      "Ġmire": 7857,
      "Ġmimus": 7858,
      "siknak": 7859,
      "punitara": 7860,
      "pokta": 7861,
      "uskatkemat": 7862,
      "santeke": 7863,
      "ãģĹãģĭãģ£ãģŁ": 7864,
      "ãģĹãģıãģ¦": 7865,
      "ãģ¨ãģĹãģ¦": 7866,
      "ukoturi": 7867,
      "Ġcikisani": 7868,
      "Ġtapta": 7869,
      "Ġpuray": 7870,
      "Ġrutu": 7871,
      "eatto": 7872,
      "eahunke": 7873,
      "toyye": 7874,
      "Ġraycep": 7875,
      "Ġrayparaparak": 7876,
      "ãģıãĤĭ": 7877,
      "mosirpasari": 7878,
      "ãĤĤãĤī": 7879,
      "ãĤĤãģ¦ãģį": 7880,
      "Ġkana": 7881,
      "rapte": 7882,
      "kikni": 7883,
      "Ġtekunpe": 7884,
      "Ġmanayta": 7885,
      "ãģĤãģ£ãģŁ": 7886,
      "ttukar": 7887,
      "Ġsoyun": 7888,
      "Ġukoani": 7889,
      "Ġukoomap": 7890,
      "Ġsakka": 7891,
      "Ġrizi": 7892,
      "Ġrikosma": 7893,
      "taaka": 7894,
      "terketerke": 7895,
      "ãģĬãģ¯ãģĤ": 7896,
      "oypepi": 7897,
      "Ġuwekarpare": 7898,
      "utarpake": 7899,
      "Ġsikekar": 7900,
      "Ġsikerpe": 7901,
      "ãģĿãĤĮãģ¯": 7902,
      "Ġneyke": 7903,
      "Ġtyo": 7904,
      "Ġiyomap": 7905,
      "oyapa": 7906,
      "kanise": 7907,
      "Ġramusinne": 7908,
      "Ġapaotki": 7909,
      "Ġpurihi": 7910,
      "ãģ®å°": 7911,
      "ãģ®åĽ": 7912,
      "Ġoyaciki": 7913,
      "Ġmesu": 7914,
      "Ġmenokoru": 7915,
      "Ġnoskike": 7916,
      "esiruwante": 7917,
      "Ġuekarire": 7918,
      "Ġuewtanne": 7919,
      "iyohay": 7920,
      "Ġeysokor": 7921,
      "jio": 7922,
      "Ġsinis": 7923,
      "è¨Ģèĳī": 7924,
      "äººéĸĵ": 7925,
      "kenkyu": 7926,
      "kewtumukor": 7927,
      "Ġbq": 7928,
      "kohepuni": 7929,
      "yayeisoytak": 7930,
      "è¡Ģ": 7931,
      "åħī": 7932,
      "weysirkur": 7933,
      "weysiante": 7934,
      "appe": 7935,
      "sattek": 7936,
      "eskari": 7937,
      "otupekare": 7938,
      "kimunkamuy": 7939,
      "Ġyupkeno": 7940,
      "Ġyaykotuyasi": 7941,
      "Ġyaykonumnumu": 7942,
      "ãĤĵãģŁãģ£ãģ¦": 7943,
      "ekohopi": 7944,
      "é£Łãģ¸ãģŁ": 7945,
      "rariw": 7946,
      "mawkopirka": 7947,
      "mawkururu": 7948,
      "rikunpesunkur": 7949,
      "piraske": 7950,
      "Ġsatsatu": 7951,
      "Ġmintari": 7952,
      "Ġiworso": 7953,
      "Ġpununa": 7954,
      "iworkorkamuy": 7955,
      "orukessak": 7956,
      "Ġkemram": 7957,
      "irpetun": 7958,
      "Ġkitayke": 7959,
      "Ġnuyto": 7960,
      "Ġ21": 7961,
      "Ġnupekorapapse": 7962,
      "poneko": 7963,
      "sempir": 7964,
      "Ġirenkakor": 7965,
      "è©±ãģĻ": 7966,
      "2003": 7967,
      "2008": 7968,
      "ãģĿãģĨãģª": 7969,
      "Ġdan": 7970,
      "Ġosiso": 7971,
      "gumi": 7972,
      "biratori": 7973,
      "kutausi": 7974,
      "æ¯İæĹ¥": 7975,
      "Ġuyrup": 7976,
      "yantokor": 7977,
      "Ġitako": 7978,
      "Ġtokuye": 7979,
      "èģŀãģį": 7980,
      "kuruma": 7981,
      "æ³¢": 7982,
      "ãģ«ãģªãĤĭãģ¨": 7983,
      "æŃ¯": 7984,
      "tonkori": 7985,
      "Ġpennok": 7986,
      "å°ıå£°": 7987,
      "Ġtumpuorunkur": 7988,
      "makip": 7989,
      "åīĬ": 7990,
      "ainugo": 7991,
      "temtemu": 7992,
      "sirkirapte": 7993,
      "Ġningen": 7994,
      "kosmacihi": 7995,
      "Ġjin": 7996,
      "kepuspenuye": 7997,
      "Ġhaaha": 7998,
      "pecik": 7999,
      "Ġtonto": 8000,
      "ãģ®åŃĲãģ¯": 8001,
      "ãģ«è¡Įãģ£ãģŁ": 8002,
      "å¤ĸãģ¸": 8003,
      "Ġtususatki": 8004,
      "ä¹ħ": 8005,
      "siokaomare": 8006,
      "imekkar": 8007,
      "aromonnas": 8008,
      "sirkocotca": 8009,
      "Ġukaosmare": 8010,
      "ãĥıãĥ": 8011,
      "kotapu": 8012,
      "Ġkohekiru": 8013,
      "æ°´ãĤĴ": 8014,
      "yaymonpokoma": 8015,
      "kampinuye": 8016,
      "åįģ": 8017,
      "syasen": 8018,
      "Ġutureskor": 8019,
      "erusa": 8020,
      "uturke": 8021,
      "Ġnimara": 8022,
      "Ġchitose": 8023,
      "kapattatni": 8024,
      "Ġcisekorkur": 8025,
      "Ġyaykakik": 8026,
      "Ġcakke": 8027,
      "Ġracitkere": 8028,
      "åħĪç¥ĸ": 8029,
      "ç²¥": 8030,
      "Ġãģ¦ãģªãģĦ": 8031,
      "åıĸãģ£ãģ¦": 8032,
      "Ġomkekar": 8033,
      "Ġsietuuyna": 8034,
      "çħ®ãģ¦": 8035,
      "siotoranne": 8036,
      "ãģ¦ãģĤãģ£ãģ¦ãĤĤ": 8037,
      "hocikacika": 8038,
      "temeni": 8039,
      "Ġerupsike": 8040,
      "Ġmippoho": 8041,
      "èĲ½ãģ¡ãĤĭ": 8042,
      "Ġchugoku": 8043,
      "æĦı": 8044,
      "kotamsuye": 8045,
      "rawnemesu": 8046,
      "ãĤĴãģ¤ãģĳãģ¦": 8047,
      "gakusei": 8048,
      "Ġworomare": 8049,
      "Ġeepaki": 8050,
      "Ġdoitsu": 8051,
      "arokamkinno": 8052,
      "é¤Ĭ": 8053,
      "éķ·ãģĦ": 8054,
      "Ġewato": 8055,
      "erampekamam": 8056,
      "asuraste": 8057,
      "nyuuryoku": 8058,
      "koonrupus": 8059,
      "Ġsokutei": 8060,
      "Ġhecirasa": 8061,
      "é¦¬é¹¿": 8062,
      "kinuptoy": 8063,
      "isemram": 8064,
      "Ġkatamsar": 8065,
      "ruenza": 8066,
      "Ġtempatempa": 8067,
      "Ġpununatki": 8068,
      "irpetunka": 8069,
      "02": 8070,
      "86": 8071,
      "88": 8072,
      "91": 8073,
      "aun": 8074,
      "ako": 8075,
      "ami": 8076,
      "bon": 8077,
      "etap": 8078,
      "ekopuntek": 8079,
      "eriki": 8080,
      "esinki": 8081,
      "eomanan": 8082,
      "ekoysoytak": 8083,
      "ekaranke": 8084,
      "ehorari": 8085,
      "ekoypokun": 8086,
      "isa": 8087,
      "iska": 8088,
      "inin": 8089,
      "iwkes": 8090,
      "ichi": 8091,
      "inonnoytak": 8092,
      "irawketupa": 8093,
      "itese": 8094,
      "more": 8095,
      "oo": 8096,
      "ohe": 8097,
      "opirka": 8098,
      "ominausi": 8099,
      "okokokse": 8100,
      "poru": 8101,
      "ple": 8102,
      "sramne": 8103,
      "tora": 8104,
      "ukan": 8105,
      "uwo": 8106,
      "ukoytak": 8107,
      "upopo": 8108,
      "uruki": 8109,
      "umomarpare": 8110,
      "wos": 8111,
      "wanpe": 8112,
      "wpekare": 8113,
      "zuno": 8114,
      "zunai": 8115,
      "¢é": 8116,
      "¥ī": 8117,
      "¯åŃĲ": 8118,
      "æ¤": 8119,
      "æ¸": 8120,
      "æĥ": 8121,
      "æĽ": 8122,
      "æŁ": 8123,
      "çĲ": 8124,
      "ĠãģĻãĤĭ": 8125,
      "ĠãĤĤãģĨ": 8126,
      "ŃãģĦ": 8127,
      "ŃãģįãģªãģķãģĦ": 8128,
      "anno": 8129,
      "ankunak": 8130,
      "kapu": 8131,
      "kawkaw": 8132,
      "Ġapus": 8133,
      "Ġaiko": 8134,
      "Ġahuppa": 8135,
      "Ġneko": 8136,
      "watki": 8137,
      "sisuye": 8138,
      "sitc": 8139,
      "siska": 8140,
      "sipusu": 8141,
      "siekimatekka": 8142,
      "Ġancikari": 8143,
      "usoy": 8144,
      "Ġkare": 8145,
      "Ġkabu": 8146,
      "Ġkaeka": 8147,
      "kera": 8148,
      "Ġeni": 8149,
      "Ġeso": 8150,
      "Ġeyaye": 8151,
      "Ġenupur": 8152,
      "Ġehuyne": 8153,
      "Ġepetciw": 8154,
      "kip": 8155,
      "kitara": 8156,
      "noka": 8157,
      "nokunneywano": 8158,
      "kono": 8159,
      "komuy": 8160,
      "kome": 8161,
      "kosuye": 8162,
      "kosonte": 8163,
      "kopokor": 8164,
      "kompu": 8165,
      "papis": 8166,
      "weni": 8167,
      "Ġito": 8168,
      "Ġion": 8169,
      "Ġikar": 8170,
      "Ġioka": 8171,
      "Ġica": 8172,
      "Ġiran": 8173,
      "Ġihoppa": 8174,
      "Ġiokunnure": 8175,
      "Ġitomunpuyar": 8176,
      "raraypa": 8177,
      "cihoki": 8178,
      "ciitakte": 8179,
      "cironnop": 8180,
      "Ġoho": 8181,
      "Ġoarpa": 8182,
      "Ġokimne": 8183,
      "Ġoahun": 8184,
      "Ġokke": 8185,
      "Ġkorkoni": 8186,
      "mara": 8187,
      "maku": 8188,
      "maturi": 8189,
      "tokkari": 8190,
      "Ġyae": 8191,
      "Ġyao": 8192,
      "ter": 8193,
      "Ġhinta": 8194,
      "tut": 8195,
      "onsen": 8196,
      "Ġpeko": 8197,
      "Ġpekano": 8198,
      "Ġoru": 8199,
      "Ġorikin": 8200,
      "repo": 8201,
      "Ġsittu": 8202,
      "Ġsicikap": 8203,
      "peray": 8204,
      "karpe": 8205,
      "poi": 8206,
      "pokkari": 8207,
      "pokomare": 8208,
      "uwepekennu": 8209,
      "setu": 8210,
      "sehu": 8211,
      "Ġuok": 8212,
      "Ġukirare": 8213,
      "Ġutokuyekor": 8214,
      "Ġuhekotpa": 8215,
      "akke": 8216,
      "monak": 8217,
      "Ġhaye": 8218,
      "Ġharikiki": 8219,
      "sayne": 8220,
      "nire": 8221,
      "nitek": 8222,
      "Ġkipka": 8223,
      "...[": 8224,
      "Ġcihopunire": 8225,
      "Ġcikasnukar": 8226,
      "Ġcikosinninup": 8227,
      "pipa": 8228,
      "piror": 8229,
      "pirihi": 8230,
      "pikuyra": 8231,
      "Ġsokorkamuy": 8232,
      "Ġsowsut": 8233,
      "ramante": 8234,
      "ramepakari": 8235,
      "hos": 8236,
      "hoy": 8237,
      "Ġkamuykar": 8238,
      "Ġkamuykoyayrayke": 8239,
      "Ġkure": 8240,
      "Ġkutci": 8241,
      "Ġkutca": 8242,
      "Ġkurihi": 8243,
      "kamuycikap": 8244,
      "kamuykanrari": 8245,
      "teksay": 8246,
      "tektokom": 8247,
      "wenkor": 8248,
      "Ġkomkosanpa": 8249,
      "âĢľâĢĺ": 8250,
      "Ġnoy": 8251,
      "Ġnikor": 8252,
      "Ġnikar": 8253,
      "Ġniyatus": 8254,
      "Ġpinne": 8255,
      "Ġpinay": 8256,
      "hehewpa": 8257,
      "Ġheyasi": 8258,
      "Ġhepasi": 8259,
      "Ġhemem": 8260,
      "Ġanakun": 8261,
      "yaykotan": 8262,
      "yaykoramuosma": 8263,
      "yaykarkarsere": 8264,
      "Ġseru": 8265,
      "Ġsekai": 8266,
      "Ġsesekka": 8267,
      "ruhu": 8268,
      "Ġsarorun": 8269,
      "soso": 8270,
      "sompay": 8271,
      "sositciw": 8272,
      "aranke": 8273,
      "Ġhosyasen": 8274,
      "Ġtoku": 8275,
      "Ġtotce": 8276,
      "Ġpirkap": 8277,
      "Ġarwan": 8278,
      "Ġaronuman": 8279,
      "puma": 8280,
      "puku": 8281,
      "asan": 8282,
      "kondo": 8283,
      "Ġisampa": 8284,
      "Ġnunuka": 8285,
      "Ġikiya": 8286,
      "ãģĦãģ£ãģ¦": 8287,
      "Ġwenkut": 8288,
      "Ġreku": 8289,
      "Ġrekut": 8290,
      "Ġrehot": 8291,
      "Ġrehoci": 8292,
      "Ġhuraha": 8293,
      "ãģŁãĤįãģĨ": 8294,
      "Ġcisekamuy": 8295,
      "neppawatap": 8296,
      "yanpu": 8297,
      "ãģĭå": 8298,
      "ãģĭãģĻãĤĭ": 8299,
      "ãģĭç«ĭ": 8300,
      "orampe": 8301,
      "Ġmonak": 8302,
      "Ġmoyuk": 8303,
      "muke": 8304,
      "mupe": 8305,
      "muemu": 8306,
      "koyyomap": 8307,
      "inehunak": 8308,
      "Ġpoki": 8309,
      "Ġporoser": 8310,
      "Ġporoserke": 8311,
      "Ġkurkot": 8312,
      "Ġyaykoni": 8313,
      "Ġmakun": 8314,
      "Ġmaori": 8315,
      "kotanpa": 8316,
      "kotannere": 8317,
      "Ġcisko": 8318,
      "pakta": 8319,
      "osan": 8320,
      "Ġ(=": 8321,
      "sikrap": 8322,
      "tunpe": 8323,
      "eiyok": 8324,
      "yaykoyupu": 8325,
      "yaykosinenne": 8326,
      "yaykonupeatte": 8327,
      "ãĤĴãģ¾": 8328,
      "ãĤĴåĪĩ": 8329,
      "Ġanime": 8330,
      "porosir": 8331,
      "ãģĹãģĭ": 8332,
      "ãģĹãĤī": 8333,
      "ãģĹãģµ": 8334,
      "eramnukuri": 8335,
      "Ġusoy": 8336,
      "tomunno": 8337,
      "omaoma": 8338,
      "sinka": 8339,
      "sinrici": 8340,
      "ãģ«ãģĻãĤĭ": 8341,
      "ãģ«ãģĬãģĦ": 8342,
      "Ġsinbun": 8343,
      "ãģĨãģŁãģĦ": 8344,
      "ukoani": 8345,
      "ukocupu": 8346,
      "kotenke": 8347,
      "hawoka": 8348,
      "hawnuyar": 8349,
      "enta": 8350,
      "enuy": 8351,
      "Ġsiknuka": 8352,
      "makkosanpa": 8353,
      "ãģķãĤĭ": 8354,
      "toykar": 8355,
      "toyray": 8356,
      "Ġpetpo": 8357,
      "Ġmanga": 8358,
      "ãģĤãģ®åŃĲ": 8359,
      "onneka": 8360,
      "kotc": 8361,
      "Ġcupka": 8362,
      "eysokor": 8363,
      "nispatomnukar": 8364,
      "ãĤĮãģªãģĦ": 8365,
      "payere": 8366,
      "moykere": 8367,
      "moymoykere": 8368,
      "sikekar": 8369,
      "Ġrispa": 8370,
      "ãĤĪãģĭãģ£ãģŁ": 8371,
      "npara": 8372,
      "ranko": 8373,
      "ranaranke": 8374,
      "Ġsonnoka": 8375,
      "terkeype": 8376,
      "waste": 8377,
      "tcaus": 8378,
      "Ġsampetoranne": 8379,
      "eyaymoysak": 8380,
      "nuyeotke": 8381,
      "ãĤĬãĤĭ": 8382,
      "ãģĿãģĹãģ¦": 8383,
      "Ġinawroski": 8384,
      "Ġtora": 8385,
      "Ġtimu": 8386,
      "Ġkewtumkor": 8387,
      "tkikar": 8388,
      "ãģ¾ãģĹãģŁ": 8389,
      "ruyruye": 8390,
      "hontomo": 8391,
      "esitcari": 8392,
      "ãģ®å¤": 8393,
      "ãģ®å¥³": 8394,
      "Ġmerayke": 8395,
      "Ġmetoru": 8396,
      "paketa": 8397,
      "é£¢é": 8398,
      "eyairayke": 8399,
      "iyos": 8400,
      "carse": 8401,
      "tannesituri": 8402,
      "Ġatuysam": 8403,
      "Ġkewtumuositciwre": 8404,
      "Ġeysoytak": 8405,
      "Ġusitta": 8406,
      "isamka": 8407,
      "Ġgi": 8408,
      "tsuishi": 8409,
      "tukko": 8410,
      "uekari": 8411,
      "Ġbyoin": 8412,
      "atus": 8413,
      "Ġhaweokapa": 8414,
      "hokubu": 8415,
      "yupuyu": 8416,
      "rapokkehe": 8417,
      "eywankep": 8418,
      "åħ¨": 8419,
      "Ġoytak": 8420,
      "ä»ĺ": 8421,
      "apka": 8422,
      "koopi": 8423,
      "ãĤıãĤĬ": 8424,
      "ãĤıãģĭãĤīãģªãģĦ": 8425,
      "toykokik": 8426,
      "åĪĿ": 8427,
      "Ġhoskinopo": 8428,
      "Ġkosirepa": 8429,
      "ãģĪãģŁ": 8430,
      "kutkore": 8431,
      "kutpoke": 8432,
      "ãģĽãģį": 8433,
      "Ġmukawa": 8434,
      "é£Łãģ¸ãģªãģķãģĦ": 8435,
      "cikisani": 8436,
      "puyaro": 8437,
      "cupki": 8438,
      "Ġinki": 8439,
      "Ġinunukeas": 8440,
      "pentari": 8441,
      "chiho": 8442,
      "ewonne": 8443,
      "Ġsatcep": 8444,
      "å°¾": 8445,
      "Ġikupasuy": 8446,
      "terebi": 8447,
      "ãĤĪãģĨãģª": 8448,
      "ãĤģãģªãģķãģĦ": 8449,
      "ãĤĦãĤĭ": 8450,
      "ãģ¿ãģªãģķãģĦ": 8451,
      "kohosarpa": 8452,
      "åĲ¹": 8453,
      "Ġraykewehe": 8454,
      "rawkotapu": 8455,
      "Ġmore": 8456,
      "ãģĭæ¿Ģ": 8457,
      "Ġ22": 8458,
      "Ġ24": 8459,
      "esotkikar": 8460,
      "harukor": 8461,
      "eohaysitoma": 8462,
      "Ġsitokar": 8463,
      "Ġcaka": 8464,
      "ãĤĤãģ®ãģĭ": 8465,
      "ãģĿãģ®ãĤĪãģĨãģ«": 8466,
      "Ġuppusi": 8467,
      "ukakuste": 8468,
      "Ġosikoni": 8469,
      "Ġhokukor": 8470,
      "henpak": 8471,
      "bihiro": 8472,
      "papsere": 8473,
      "Ġkoysum": 8474,
      "Ġuturuhu": 8475,
      "koruyruye": 8476,
      "ãģ«ãģªãģ£ãģŁ": 8477,
      "Ġpararu": 8478,
      "turenkamuy": 8479,
      "uturasinot": 8480,
      "ãģ®èĤ": 8481,
      "cancanke": 8482,
      "å®¢": 8483,
      "Ġetupsike": 8484,
      "repunkamuy": 8485,
      "Ġcinpuni": 8486,
      "Ġkewsutu": 8487,
      "Ġkewrototke": 8488,
      "koetuye": 8489,
      "æĺİæĹ¥": 8490,
      "otopus": 8491,
      "kirirse": 8492,
      "Ġhousou": 8493,
      "kotcawot": 8494,
      "éĸĭ": 8495,
      "ãģ«è¡Įãģ£ãģ¦": 8496,
      "ãĤ·ãĥ©": 8497,
      "ãĤ·ãĥĬ": 8498,
      "ļ®ãĤī": 8499,
      "Ġtusmak": 8500,
      "ä¹³": 8501,
      "Ġcompa": 8502,
      "pawetok": 8503,
      "Ġparunpe": 8504,
      "Ġzen": 8505,
      "èĩªåĪĨãģ¦": 8506,
      "éĢĥ": 8507,
      "æĮģãģ£ãģ¦ãģĦãĤĭ": 8508,
      "rikinte": 8509,
      "ä¼¸": 8510,
      "ä¼ĳ": 8511,
      "Ġarekuskonna": 8512,
      "Ġaeoynakamuy": 8513,
      "èµ¤": 8514,
      "åį±": 8515,
      "åįĬ": 8516,
      "éĻį": 8517,
      "Ġbutai": 8518,
      "tusihi": 8519,
      "koasurkor": 8520,
      "eyayramkar": 8521,
      "rototo": 8522,
      "ä¾Ľé¤Ĭ": 8523,
      "Ġmikemike": 8524,
      "ãģ£ãģ¦ãģĦãģĨãģĵãģ¨": 8525,
      "Ġrinzo": 8526,
      "æ®ĭ": 8527,
      "ãģ¡ãĤĩãģĨãģŁãģĦ": 8528,
      "Ġyayeymontasa": 8529,
      "åĴĮäºº": 8530,
      "æĬ±": 8531,
      "yasaburo": 8532,
      "rikna": 8533,
      "ãģĬãģĹãģĦãģķãĤĵãģĭ": 8534,
      "hokampa": 8535,
      "å¸°ãģ£ãģ¦": 8536,
      "ãģĦãģªãģĭãĤī": 8537,
      "cisekorkamuy": 8538,
      "Ġtibetto": 8539,
      "Ġaratusa": 8540,
      "åĬ©": 8541,
      "æİĥ": 8542,
      "Ġsikkasma": 8543,
      "é¢¨ãģĭ": 8544,
      "butsukan": 8545,
      "Ġekinokokkusu": 8546,
      "senzyuu": 8547,
      "irenkakor": 8548,
      "æ²¼": 8549,
      "èĬ±": 8550,
      "Ġeriezeru": 8551,
      "osawsa": 8552,
      "ãģĬéĩĳãĤĴ": 8553,
      "Ġtakesiro": 8554,
      "ä¸Ģäººãģ¦": 8555,
      "èĭ¥èĢħ": 8556,
      "Ġryoun": 8557,
      "åĲĮå¸Ń": 8558,
      "cipekusa": 8559,
      "petoput": 8560,
      "wenpurikor": 8561,
      "kosomotasnu": 8562,
      "sipitatpa": 8563,
      "repuysirunkur": 8564,
      "Ġshinbun": 8565,
      "Ġhuyke": 8566,
      "ãģıãĤīãģĦ": 8567,
      "yayeymontasa": 8568,
      "ãĤ«ãĥłãĤ¤": 8569,
      "Ġtaisyo": 8570,
      "penramuhu": 8571,
      "åħ¥ãĤĮãģªãģķãģĦ": 8572,
      "è²§ä¹ıäºº": 8573,
      "è±Ĩ": 8574,
      "kohawasi": 8575,
      "ikurkur": 8576,
      "Ġhokenzyo": 8577,
      "rokpekusu": 8578,
      "ekisarsutu": 8579,
      "éĥ¨": 8580,
      "siresitte": 8581,
      "Ġtosizo": 8582,
      "okanomi": 8583,
      "éª¨": 8584,
      "wenona": 8585,
      "hakodate": 8586,
      "orokontari": 8587,
      "ãģ®åĽ½": 8588,
      "pecikcik": 8589,
      "ä¹ħãģĹãģµ": 8590,
      "Ġapusta": 8591,
      "é£¢é¥ī": 8592,
      "yupuyupu": 8593,
      "åĲĮå¸ŃèĢħ": 8594,
      "'s": 8595,
      "100": 8596,
      "92": 8597,
      "93": 8598,
      "95": 8599,
      "99": 8600,
      "=_": 8601,
      "[?]": 8602,
      "ata": 8603,
      "ame": 8604,
      "aspa": 8605,
      "apu": 8606,
      "amu": 8607,
      "appa": 8608,
      "apase": 8609,
      "amerika": 8610,
      "arukesanpa": 8611,
      "bora": 8612,
      "don": 8613,
      "eto": 8614,
      "eunno": 8615,
      "etomo": 8616,
      "eosi": 8617,
      "esinot": 8618,
      "erorun": 8619,
      "etarka": 8620,
      "ecakke": 8621,
      "gane": 8622,
      "iya": 8623,
      "iunin": 8624,
      "icari": 8625,
      "ieciw": 8626,
      "iyupne": 8627,
      "iyapo": 8628,
      "nunu": 8629,
      "nkop": 8630,
      "oki": 8631,
      "oayne": 8632,
      "opus": 8633,
      "oure": 8634,
      "osukere": 8635,
      "qu": 8636,
      "run": 8637,
      "ryou": 8638,
      "rpeni": 8639,
      "sus": 8640,
      "susam": 8641,
      "tin": 8642,
      "ttus": 8643,
      "uci": 8644,
      "uwanpare": 8645,
      "uirusu": 8646,
      "zaki": 8647,
      "¢å±±": 8648,
      "£åŃĲ": 8649,
      "¥ãģķãĤĵ": 8650,
      "¦ãĥª": 8651,
      "®¸": 8652,
      "²ãĤĢ": 8653,
      "²¢å±±": 8654,
      "´Ĺ": 8655,
      "·åĲĪ": 8656,
      "º«": 8657,
      "¿¡": 8658,
      "æ©": 8659,
      "æĻ": 8660,
      "æļ®ãĤī": 8661,
      "çħ": 8662,
      "çĩ": 8663,
      "èĮ": 8664,
      "èĥĮè²ł": 8665,
      "é¨": 8666,
      "éļ": 8667,
      "ĠãģĨãĤĵ": 8668,
      "ĠãĤ¯": 8669,
      "ĠãĢĶ": 8670,
      "łŃ": 8671,
      "nesko": 8672,
      "kachi": 8673,
      "Ġaun": 8674,
      "Ġaci": 8675,
      "Ġarukesanpa": 8676,
      "taka": 8677,
      "Ġpusko": 8678,
      "Ġhana": 8679,
      "wasam": 8680,
      "sipe": 8681,
      "siye": 8682,
      "sikao": 8683,
      "sikuma": 8684,
      "sippo": 8685,
      "sihawnuyar": 8686,
      "Ġwaka": 8687,
      "Ġwakay": 8688,
      "Ġwakkar": 8689,
      "uspasuy": 8690,
      "unma": 8691,
      "unkeray": 8692,
      "unga": 8693,
      "Ġkawa": 8694,
      "Ġkasin": 8695,
      "Ġeka": 8696,
      "Ġepi": 8697,
      "Ġeoma": 8698,
      "Ġeusi": 8699,
      "Ġeukoitak": 8700,
      "Ġetete": 8701,
      "Ġekamke": 8702,
      "Ġeninuy": 8703,
      "Ġekohopi": 8704,
      "Ġenomoto": 8705,
      "noki": 8706,
      "kom": 8707,
      "koki": 8708,
      "kokor": 8709,
      "kooka": 8710,
      "komon": 8711,
      "kokisma": 8712,
      "kotunas": 8713,
      "kopakke": 8714,
      "koturimimse": 8715,
      "kokerkeri": 8716,
      "kosesekka": 8717,
      "koyayapapu": 8718,
      "koewnara": 8719,
      "koponci": 8720,
      "kornay": 8721,
      "korhuci": 8722,
      "koroto": 8723,
      "pakes": 8724,
      "were": 8725,
      "Ġik": 8726,
      "Ġinean": 8727,
      "Ġikayop": 8728,
      "cie": 8729,
      "ciokay": 8730,
      "cikacika": 8731,
      "cisireanu": 8732,
      "Ġsyuu": 8733,
      "Ġsusam": 8734,
      "Ġoa": 8735,
      "Ġoo": 8736,
      "Ġohe": 8737,
      "Ġopu": 8738,
      "Ġooma": 8739,
      "Ġosike": 8740,
      "Ġopke": 8741,
      "Ġotuypa": 8742,
      "numpa": 8743,
      "nukoan": 8744,
      "Ġtarara": 8745,
      "Ġtamura": 8746,
      "ripi": 8747,
      "Ġkorpare": 8748,
      "make": 8749,
      "mawre": 8750,
      "toanpe": 8751,
      "topse": 8752,
      "topenpe": 8753,
      "Ġyatto": 8754,
      "Ġyairayke": 8755,
      "teske": 8756,
      "tetun": 8757,
      "turay": 8758,
      "Ġpera": 8759,
      "Ġpena": 8760,
      "Ġperay": 8761,
      "Ġorene": 8762,
      "rerko": 8763,
      "rekut": 8764,
      "Ġsikote": 8765,
      "Ġsitte": 8766,
      "Ġsisuye": 8767,
      "Ġsiamam": 8768,
      "Ġsisermakuste": 8769,
      "Ġsitakkaneko": 8770,
      "peppa": 8771,
      "poon": 8772,
      "pospare": 8773,
      "uwehe": 8774,
      "anepitta": 8775,
      "setur": 8776,
      "sesiumu": 8777,
      "Ġuwa": 8778,
      "Ġume": 8779,
      "Ġuoro": 8780,
      "Ġuoma": 8781,
      "Ġukora": 8782,
      "Ġuwor": 8783,
      "Ġuamkir": 8784,
      "Ġueinkar": 8785,
      "akki": 8786,
      "akuyra": 8787,
      "hina": 8788,
      "hitara": 8789,
      "hidaka": 8790,
      "moteki": 8791,
      "mokonrusuy": 8792,
      "samomare": 8793,
      "nikne": 8794,
      "Ġkite": 8795,
      "Ġkikan": 8796,
      "...=": 8797,
      "Ġpakita": 8798,
      "Ġpapiror": 8799,
      "Ġcinukar": 8800,
      "Ġcituye": 8801,
      "Ġcitumam": 8802,
      "pise": 8803,
      "pirkep": 8804,
      "tandato": 8805,
      "mitpo": 8806,
      "onnokka": 8807,
      "Ġsoma": 8808,
      "Ġsospa": 8809,
      "hokootte": 8810,
      "rkata": 8811,
      "Ġkamuyko": 8812,
      "Ġkamuymosir": 8813,
      "sirpirka": 8814,
      "sirsak": 8815,
      "sirsimoye": 8816,
      "sirkootke": 8817,
      "Ġkura": 8818,
      "Ġkumi": 8819,
      "Ġkuani": 8820,
      "kamuykar": 8821,
      "wenruy": 8822,
      "wenkewtumkor": 8823,
      "wenkin": 8824,
      "Ġkoto": 8825,
      "Ġkouyna": 8826,
      "Ġkocorawki": 8827,
      "Ġkomatsu": 8828,
      "Ġkopisi": 8829,
      "âĢĿ,": 8830,
      "hara": 8831,
      "hama": 8832,
      "hapoho": 8833,
      "Ġnoye": 8834,
      "Ġnotak": 8835,
      "Ġnisa": 8836,
      "Ġninum": 8837,
      "sumi": 8838,
      "Ġpin": 8839,
      "Ġpiro": 8840,
      "Ġpirihi": 8841,
      "Ġpikki": 8842,
      "menas": 8843,
      "hesasi": 8844,
      "hepututu": 8845,
      "hemesusu": 8846,
      "orounu": 8847,
      "Ġheusi": 8848,
      "yaymoto": 8849,
      "Ġsere": 8850,
      "rusihi": 8851,
      "Ġsato": 8852,
      "rayoci": 8853,
      "Ġhoy": 8854,
      "Ġhopunpare": 8855,
      "Ġhocikacika": 8856,
      "Ġtomi": 8857,
      "Ġtosir": 8858,
      "Ġtohoku": 8859,
      "Ġaroyaciki": 8860,
      "humpa": 8861,
      "huusin": 8862,
      "yoku": 8863,
      "puk": 8864,
      "Ġcori": 8865,
      "Ġcoy": 8866,
      "kasremesu": 8867,
      "taritari": 8868,
      "kunnuyna": 8869,
      "kunneasin": 8870,
      "ãģĦãĤĦ": 8871,
      "Ġwenpakasnu": 8872,
      "Ġkewor": 8873,
      "Ġketupe": 8874,
      "Ġrepke": 8875,
      "Ġhukusima": 8876,
      "Ġorawki": 8877,
      "ãģŁãģª": 8878,
      "ãģŁãģŃ": 8879,
      "ãģŁãģĳãģ¨": 8880,
      "kurmat": 8881,
      "nepkire": 8882,
      "ãģĭãģŁ": 8883,
      "ãģĭãģŁãģıãģķãĤĵ": 8884,
      "oram": 8885,
      "oramat": 8886,
      "mukar": 8887,
      "mumatki": 8888,
      "Ġ...ï¼Ī": 8889,
      "koykar": 8890,
      "Ġsirpok": 8891,
      "tapkar": 8892,
      "Ġsuru": 8893,
      "capis": 8894,
      "kansen": 8895,
      "kantama": 8896,
      "kansikkasma": 8897,
      "ãģ®ãģĿãģ¯": 8898,
      "inen": 8899,
      "Ġhikehe": 8900,
      "Ġpoon": 8901,
      "Ġpowtari": 8902,
      "ãĢĤï¼Ī": 8903,
      "Ġnepnep": 8904,
      "Ġporosere": 8905,
      "pirkakewtumkor": 8906,
      "aynukotan": 8907,
      "Ġkurkus": 8908,
      "Ġyayramu": 8909,
      "Ġyaykotan": 8910,
      "Ġyaysamne": 8911,
      "Ġyaytomoytak": 8912,
      "Ġnukoan": 8913,
      "Ġnusimneno": 8914,
      "hunta": 8915,
      "Ġmawehe": 8916,
      "Ġciste": 8917,
      "Ġsuypa": 8918,
      "Ġteske": 8919,
      "Ġrapo": 8920,
      "Ġraraypa": 8921,
      "Ġrapapse": 8922,
      "Ġipeemaka": 8923,
      "Ġenkasi": 8924,
      "ãģªãĤĵãģ¦": 8925,
      "ciseni": 8926,
      "cisekouhuyka": 8927,
      "orerok": 8928,
      "sineani": 8929,
      "eiska": 8930,
      "yaykokarkar": 8931,
      "ãĤĴãģĤ": 8932,
      "ãĤĴãģ²": 8933,
      "sanput": 8934,
      "sanakuyra": 8935,
      "Ġusar": 8936,
      "ï¼Ĵ": 8937,
      "ï¼Ŀ": 8938,
      "omazi": 8939,
      "ãģ¨è¨ĢãģĨ": 8940,
      "ãģ¨æĢĿãģĨ": 8941,
      "ãģ«ãģı": 8942,
      "Ġsinzyo": 8943,
      "tomam": 8944,
      "tarare": 8945,
      "Ġkunneasin": 8946,
      "ukopuntek": 8947,
      "ukomak": 8948,
      "ukowsaraye": 8949,
      "ecipo": 8950,
      "Ġcikirihi": 8951,
      "kotem": 8952,
      "kespeki": 8953,
      "Ġtapkasi": 8954,
      "sitomare": 8955,
      "Ġpuma": 8956,
      "ç§»": 8957,
      "maknak": 8958,
      "Ġmatkosanpa": 8959,
      "Ġruturutu": 8960,
      "Ġkonci": 8961,
      "apekor": 8962,
      "ãģķãģĽãĤĭ": 8963,
      "toypuhu": 8964,
      "nonruki": 8965,
      "antehoku": 8966,
      "tokoho": 8967,
      "cistaspare": 8968,
      "neyke": 8969,
      "Ġmosiroppa": 8970,
      "Ġsukeokere": 8971,
      "Ġkanpe": 8972,
      "Ġkankan": 8973,
      "Ġassa": 8974,
      "ãĤīãģĻ": 8975,
      "ãĤīãĤĮãģ¦": 8976,
      "ãģĵãģ»": 8977,
      "pettom": 8978,
      "Ġtektokom": 8979,
      "ãģĤãĤĮ": 8980,
      "Ġcipsanke": 8981,
      "nukarar": 8982,
      "tturkata": 8983,
      "etaspe": 8984,
      "Ġukokor": 8985,
      "Ġukohe": 8986,
      "Ġukousaraye": 8987,
      "Ġukouturke": 8988,
      "hawesanke": 8989,
      "eynonnoitak": 8990,
      "turpak": 8991,
      "tcir": 8992,
      "ukyou": 8993,
      "rurapa": 8994,
      "Ġsakmantaci": 8995,
      "kasuypa": 8996,
      "Ġrit": 8997,
      "dokuga": 8998,
      "taatte": 8999,
      "Ġtoykar": 9000,
      "dakara": 9001,
      "Ġeiwanke": 9002,
      "Ġeiga": 9003,
      "eramupase": 9004,
      "Ġeasirana": 9005,
      "kosietaye": 9006,
      "sontak": 9007,
      "oykare": 9008,
      "eyayirayke": 9009,
      "eyaykonrusuy": 9010,
      "Ġuwetusmak": 9011,
      "ãģįãģ¤": 9012,
      "ãģįãģ£ãģ¨": 9013,
      "makak": 9014,
      "ä¸»": 9015,
      "sutorari": 9016,
      "poutarihi": 9017,
      "tupatu": 9018,
      "bugyo": 9019,
      "Ġiyokpe": 9020,
      "mpap": 9021,
      "kewsut": 9022,
      "rokte": 9023,
      "kikinni": 9024,
      "inukuri": 9025,
      "inukurpa": 9026,
      "Ġ17": 9027,
      "Ġramuriten": 9028,
      "cepkorkamuy": 9029,
      "otatpa": 9030,
      "Ġapaorotpe": 9031,
      "Ġrupnekur": 9032,
      "Ġnaypa": 9033,
      "ãģ®åħ": 9034,
      "Ġoyap": 9035,
      "Ġoyakke": 9036,
      "Ġoyasim": 9037,
      "Ġirampitta": 9038,
      "Ġmei": 9039,
      "Ġmeiji": 9040,
      "ãģ¸ãģĭ": 9041,
      "oykir": 9042,
      "surani": 9043,
      "ãģĹãģ¦ãģĦãģŁ": 9044,
      "sampehe": 9045,
      "eyasani": 9046,
      "Ġtumke": 9047,
      "konisuye": 9048,
      "Ġyayeoripak": 9049,
      "Ġrohu": 9050,
      "Ġgoro": 9051,
      "Ġgin": 9052,
      "shia": 9053,
      "shiki": 9054,
      "tsune": 9055,
      "Ġattom": 9056,
      "parata": 9057,
      "è¨ĢãģĦ": 9058,
      "Ġroruy": 9059,
      "uetunuyse": 9060,
      "pannispa": 9061,
      "haykar": 9062,
      "kohetari": 9063,
      "kohetuku": 9064,
      "kohemuymuye": 9065,
      "eunara": 9066,
      "yayeoripak": 9067,
      "åħĦ": 9068,
      "Ġmatakihi": 9069,
      "é£ŁåĻ¨": 9070,
      "Ġiwansuy": 9071,
      "koopas": 9072,
      "ãģ¤ãģĦãģŁ": 9073,
      "ãģĦãģŁãģ¨ãģĵãĤį": 9074,
      "Ġkaysankan": 9075,
      "gai": 9076,
      "gata": 9077,
      "tuskote": 9078,
      "ãģ®ç«": 9079,
      "Ġkoyaykire": 9080,
      "hankeko": 9081,
      "Ġreyepkamuy": 9082,
      "parunpe": 9083,
      "parparu": 9084,
      "puyarseske": 9085,
      "kemeaskay": 9086,
      "Ġeyaykatuwen": 9087,
      "Ġeyaykorampetetne": 9088,
      "cop": 9089,
      "Ġohare": 9090,
      "ãĤĴæ´Ĺ": 9091,
      "Ġcarse": 9092,
      "Ġcaruyka": 9093,
      "Ġsatpinay": 9094,
      "Ġnusaasi": 9095,
      "hosippare": 9096,
      "Ġtomot": 9097,
      "sikomewe": 9098,
      "sikoyantonere": 9099,
      "eniwcinne": 9100,
      "youkikan": 9101,
      "ãĤĪãģĨãģŁãĤĪ": 9102,
      "asirotke": 9103,
      "koiwak": 9104,
      "Ġmoyremat": 9105,
      "ãĤĦãģ£ãģ¯": 9106,
      "Ġasinru": 9107,
      "kouwekari": 9108,
      "Ġhuskotoy": 9109,
      "mossi": 9110,
      "etuhu": 9111,
      "Ġreporaye": 9112,
      "Ġkemekot": 9113,
      "gitsune": 9114,
      "porse": 9115,
      "ãĤĤãģ®ãģ¯": 9116,
      "beru": 9117,
      "kawakawa": 9118,
      "å¯Ħ": 9119,
      "Ġepiskan": 9120,
      "æ¯Ľ": 9121,
      "Ġuyru": 9122,
      "monaare": 9123,
      "Ġatteynemosir": 9124,
      "Ġitakomare": 9125,
      "sonenamusa": 9126,
      "Ġkoypak": 9127,
      "Ġiyunin": 9128,
      "Ġiyonnokka": 9129,
      "ãĤĵãģ¦ãģĦãĤĭ": 9130,
      "æ³Ĭ": 9131,
      "uturumkote": 9132,
      "ãģĤãģªãģŁãģŁãģ¡ãģ¯": 9133,
      "takupi": 9134,
      "sumawne": 9135,
      "awekatta": 9136,
      "konnoan": 9137,
      "ãģ®èĳī": 9138,
      "Ġrikunkanto": 9139,
      "tawkitawki": 9140,
      "å®Ī": 9141,
      "Ġpannok": 9142,
      "Ġetukka": 9143,
      "ãĤĮãĤĭãģ¨": 9144,
      "awakina": 9145,
      "ç¥Ń": 9146,
      "çģ«ãĤĴ": 9147,
      "Ġcinkewsut": 9148,
      "Ġ50": 9149,
      "itah": 9150,
      "ãĥķãĤŃ": 9151,
      "Ġ2000": 9152,
      "ãģ»ãģ¨": 9153,
      "keseanpa": 9154,
      "Ġhokao": 9155,
      "æĺ¼": 9156,
      "Ġainutaimuzu": 9157,
      "Ġutasaroski": 9158,
      "Ġeokokte": 9159,
      "Ġtonka": 9160,
      "å¤ĸãģ¦": 9161,
      "mukamu": 9162,
      "è²·": 9163,
      "Ġasuruhu": 9164,
      "Ġisramne": 9165,
      "Ġzai": 9166,
      "Ġmoyono": 9167,
      "sitnere": 9168,
      "Ġkahunsyou": 9169,
      "korimnatara": 9170,
      "rakkur": 9171,
      "hattar": 9172,
      "rorunso": 9173,
      "eukoitak": 9174,
      "éħį": 9175,
      "kuraspa": 9176,
      "Ġputaha": 9177,
      "Ġotopi": 9178,
      "èªŀ": 9179,
      "Ġtoykokikkik": 9180,
      "Ġkyoshitsu": 9181,
      "Ġsempir": 9182,
      "rumataru": 9183,
      "ãģĬåīįãģ¯": 9184,
      "ãģĬåīįãģŁãģ¡": 9185,
      "eronne": 9186,
      "Ġchikyu": 9187,
      "Ġrawosma": 9188,
      "å¾ħ": 9189,
      "yayutar": 9190,
      "Ġcisekorkamuy": 9191,
      "æķ°": 9192,
      "Ġmikekar": 9193,
      "èĨ³": 9194,
      "masakari": 9195,
      "åĢĴ": 9196,
[...]
